{
  "version": "1.0",
  "truncation": null,
  "padding": null,
  "added_tokens": [
    {
      "id": 0,
      "content": "[PAD]",
      "single_word": false,
      "lstrip": false,
      "rstrip": false,
      "normalized": false,
      "special": true
    },
    {
      "id": 1,
      "content": "[UNK]",
      "single_word": false,
      "lstrip": false,
      "rstrip": false,
      "normalized": false,
      "special": true
    },
    {
      "id": 2,
      "content": "[CLS]",
      "single_word": false,
      "lstrip": false,
      "rstrip": false,
      "normalized": false,
      "special": true
    },
    {
      "id": 3,
      "content": "[SEP]",
      "single_word": false,
      "lstrip": false,
      "rstrip": false,
      "normalized": false,
      "special": true
    },
    {
      "id": 4,
      "content": "[MASK]",
      "single_word": false,
      "lstrip": false,
      "rstrip": false,
      "normalized": false,
      "special": true
    }
  ],
  "normalizer": null,
  "pre_tokenizer": {
    "type": "BertPreTokenizer"
  },
  "post_processor": {
    "type": "TemplateProcessing",
    "single": [
      {
        "SpecialToken": {
          "id": "[CLS]",
          "type_id": 0
        }
      },
      {
        "Sequence": {
          "id": "A",
          "type_id": 0
        }
      },
      {
        "SpecialToken": {
          "id": "[SEP]",
          "type_id": 0
        }
      }
    ],
    "pair": [
      {
        "SpecialToken": {
          "id": "[CLS]",
          "type_id": 0
        }
      },
      {
        "Sequence": {
          "id": "A",
          "type_id": 0
        }
      },
      {
        "SpecialToken": {
          "id": "[SEP]",
          "type_id": 0
        }
      },
      {
        "Sequence": {
          "id": "B",
          "type_id": 1
        }
      },
      {
        "SpecialToken": {
          "id": "[SEP]",
          "type_id": 1
        }
      }
    ],
    "special_tokens": {
      "[CLS]": {
        "id": "[CLS]",
        "ids": [
          2
        ],
        "tokens": [
          "[CLS]"
        ]
      },
      "[SEP]": {
        "id": "[SEP]",
        "ids": [
          3
        ],
        "tokens": [
          "[SEP]"
        ]
      }
    }
  },
  "decoder": null,
  "model": {
    "type": "WordPiece",
    "unk_token": "[UNK]",
    "continuing_subword_prefix": "##",
    "max_input_chars_per_word": 100,
    "vocab": {
      "[PAD]": 0,
      "[UNK]": 1,
      "[CLS]": 2,
      "[SEP]": 3,
      "[MASK]": 4,
      "!": 5,
      "\"": 6,
      "#": 7,
      "$": 8,
      "%": 9,
      "&": 10,
      "'": 11,
      "(": 12,
      ")": 13,
      "*": 14,
      "+": 15,
      ",": 16,
      "-": 17,
      ".": 18,
      "/": 19,
      "0": 20,
      "1": 21,
      "2": 22,
      "3": 23,
      "4": 24,
      "5": 25,
      "6": 26,
      "7": 27,
      "8": 28,
      "9": 29,
      ":": 30,
      ";": 31,
      "<": 32,
      "=": 33,
      ">": 34,
      "?": 35,
      "@": 36,
      "A": 37,
      "B": 38,
      "C": 39,
      "D": 40,
      "E": 41,
      "F": 42,
      "G": 43,
      "H": 44,
      "I": 45,
      "J": 46,
      "K": 47,
      "L": 48,
      "M": 49,
      "N": 50,
      "O": 51,
      "P": 52,
      "Q": 53,
      "R": 54,
      "S": 55,
      "T": 56,
      "U": 57,
      "V": 58,
      "W": 59,
      "X": 60,
      "Y": 61,
      "Z": 62,
      "[": 63,
      "\\": 64,
      "]": 65,
      "^": 66,
      "_": 67,
      "`": 68,
      "a": 69,
      "b": 70,
      "c": 71,
      "d": 72,
      "e": 73,
      "f": 74,
      "g": 75,
      "h": 76,
      "i": 77,
      "j": 78,
      "k": 79,
      "l": 80,
      "m": 81,
      "n": 82,
      "o": 83,
      "p": 84,
      "q": 85,
      "r": 86,
      "s": 87,
      "t": 88,
      "u": 89,
      "v": 90,
      "w": 91,
      "x": 92,
      "y": 93,
      "z": 94,
      "{": 95,
      "|": 96,
      "}": 97,
      "~": 98,
      "": 99,
      "": 100,
      "¡": 101,
      "¢": 102,
      "£": 103,
      "¥": 104,
      "§": 105,
      "°": 106,
      "±": 107,
      "²": 108,
      "³": 109,
      "´": 110,
      "µ": 111,
      "·": 112,
      "¹": 113,
      "º": 114,
      "¼": 115,
      "½": 116,
      "¾": 117,
      "¿": 118,
      "À": 119,
      "Á": 120,
      "Â": 121,
      "Ä": 122,
      "Å": 123,
      "Æ": 124,
      "Ç": 125,
      "É": 126,
      "Í": 127,
      "Î": 128,
      "Ñ": 129,
      "Ó": 130,
      "Ö": 131,
      "×": 132,
      "Ø": 133,
      "Ú": 134,
      "Ü": 135,
      "Þ": 136,
      "ß": 137,
      "à": 138,
      "á": 139,
      "â": 140,
      "ã": 141,
      "ä": 142,
      "å": 143,
      "æ": 144,
      "ç": 145,
      "è": 146,
      "é": 147,
      "ê": 148,
      "ë": 149,
      "ì": 150,
      "í": 151,
      "î": 152,
      "ï": 153,
      "ð": 154,
      "ñ": 155,
      "ò": 156,
      "ó": 157,
      "ô": 158,
      "ö": 159,
      "ø": 160,
      "ù": 161,
      "ú": 162,
      "û": 163,
      "ü": 164,
      "ý": 165,
      "þ": 166,
      "Ā": 167,
      "ā": 168,
      "ă": 169,
      "ą": 170,
      "Ć": 171,
      "ć": 172,
      "Č": 173,
      "č": 174,
      "ď": 175,
      "Đ": 176,
      "đ": 177,
      "Ē": 178,
      "ē": 179,
      "Ĕ": 180,
      "ĕ": 181,
      "ė": 182,
      "ę": 183,
      "ě": 184,
      "ğ": 185,
      "ħ": 186,
      "ī": 187,
      "ĭ": 188,
      "į": 189,
      "İ": 190,
      "ı": 191,
      "Ľ": 192,
      "Ł": 193,
      "ł": 194,
      "ń": 195,
      "ň": 196,
      "ŋ": 197,
      "Ō": 198,
      "ō": 199,
      "ŏ": 200,
      "ő": 201,
      "Œ": 202,
      "œ": 203,
      "ř": 204,
      "Ś": 205,
      "ś": 206,
      "Ş": 207,
      "ş": 208,
      "Š": 209,
      "š": 210,
      "ţ": 211,
      "ť": 212,
      "ũ": 213,
      "ū": 214,
      "ů": 215,
      "ű": 216,
      "ų": 217,
      "ŷ": 218,
      "ź": 219,
      "Ż": 220,
      "ż": 221,
      "Ž": 222,
      "ž": 223,
      "ơ": 224,
      "ư": 225,
      "ǎ": 226,
      "ǔ": 227,
      "ǝ": 228,
      "ǣ": 229,
      "Ǧ": 230,
      "ǫ": 231,
      "Ș": 232,
      "ș": 233,
      "ț": 234,
      "ȟ": 235,
      "ȯ": 236,
      "ɐ": 237,
      "ɑ": 238,
      "ɒ": 239,
      "ɔ": 240,
      "ə": 241,
      "ɛ": 242,
      "ɜ": 243,
      "ɡ": 244,
      "ɢ": 245,
      "ɣ": 246,
      "ɪ": 247,
      "ɫ": 248,
      "ɬ": 249,
      "ɭ": 250,
      "ɳ": 251,
      "ɽ": 252,
      "ɾ": 253,
      "ʀ": 254,
      "ʁ": 255,
      "ʂ": 256,
      "ʃ": 257,
      "ʉ": 258,
      "ʊ": 259,
      "ʋ": 260,
      "ʌ": 261,
      "ʒ": 262,
      "ʔ": 263,
      "ʕ": 264,
      "ʲ": 265,
      "ʷ": 266,
      "ʻ": 267,
      "ʼ": 268,
      "ʾ": 269,
      "ʿ": 270,
      "ˁ": 271,
      "ˈ": 272,
      "ˌ": 273,
      "ː": 274,
      "ˑ": 275,
      "˚": 276,
      "ˤ": 277,
      "́": 278,
      "̃": 279,
      "̆": 280,
      "̍": 281,
      "̥": 282,
      "̩": 283,
      "̯": 284,
      "͍": 285,
      "͡": 286,
      "Ά": 287,
      "Α": 288,
      "Β": 289,
      "Γ": 290,
      "Δ": 291,
      "Ε": 292,
      "Θ": 293,
      "Κ": 294,
      "Λ": 295,
      "Μ": 296,
      "Ν": 297,
      "Ξ": 298,
      "Ο": 299,
      "Π": 300,
      "Σ": 301,
      "Τ": 302,
      "Υ": 303,
      "Φ": 304,
      "Χ": 305,
      "Ψ": 306,
      "Ω": 307,
      "ά": 308,
      "έ": 309,
      "ή": 310,
      "ί": 311,
      "α": 312,
      "β": 313,
      "γ": 314,
      "δ": 315,
      "ε": 316,
      "ζ": 317,
      "η": 318,
      "θ": 319,
      "ι": 320,
      "κ": 321,
      "λ": 322,
      "μ": 323,
      "ν": 324,
      "ξ": 325,
      "ο": 326,
      "π": 327,
      "ρ": 328,
      "ς": 329,
      "σ": 330,
      "τ": 331,
      "υ": 332,
      "φ": 333,
      "χ": 334,
      "ψ": 335,
      "ω": 336,
      "ό": 337,
      "ύ": 338,
      "ώ": 339,
      "А": 340,
      "Б": 341,
      "В": 342,
      "Г": 343,
      "К": 344,
      "П": 345,
      "Р": 346,
      "С": 347,
      "У": 348,
      "Х": 349,
      "Я": 350,
      "а": 351,
      "в": 352,
      "г": 353,
      "д": 354,
      "е": 355,
      "ж": 356,
      "з": 357,
      "и": 358,
      "й": 359,
      "к": 360,
      "л": 361,
      "м": 362,
      "н": 363,
      "о": 364,
      "п": 365,
      "р": 366,
      "с": 367,
      "т": 368,
      "у": 369,
      "х": 370,
      "ц": 371,
      "ч": 372,
      "ш": 373,
      "ъ": 374,
      "ы": 375,
      "ь": 376,
      "ю": 377,
      "я": 378,
      "є": 379,
      "֤": 380,
      "֫": 381,
      "ְ": 382,
      "ֱ": 383,
      "ֲ": 384,
      "ֳ": 385,
      "ִ": 386,
      "ֵ": 387,
      "ֶ": 388,
      "ַ": 389,
      "ָ": 390,
      "ֹ": 391,
      "ֻ": 392,
      "ּ": 393,
      "ׁ": 394,
      "ׂ": 395,
      "א": 396,
      "ב": 397,
      "ג": 398,
      "ד": 399,
      "ה": 400,
      "ו": 401,
      "ז": 402,
      "ח": 403,
      "ט": 404,
      "י": 405,
      "כ": 406,
      "ל": 407,
      "ם": 408,
      "מ": 409,
      "ן": 410,
      "נ": 411,
      "ס": 412,
      "ע": 413,
      "ף": 414,
      "פ": 415,
      "ץ": 416,
      "צ": 417,
      "ק": 418,
      "ר": 419,
      "ש": 420,
      "ת": 421,
      "ء": 422,
      "أ": 423,
      "إ": 424,
      "ئ": 425,
      "ا": 426,
      "ب": 427,
      "ة": 428,
      "ت": 429,
      "ث": 430,
      "ج": 431,
      "ح": 432,
      "خ": 433,
      "د": 434,
      "ذ": 435,
      "ر": 436,
      "س": 437,
      "ش": 438,
      "ص": 439,
      "ط": 440,
      "ع": 441,
      "ف": 442,
      "ق": 443,
      "ك": 444,
      "ل": 445,
      "م": 446,
      "ن": 447,
      "ه": 448,
      "و": 449,
      "ي": 450,
      "ٰ": 451,
      "ی": 452,
      "ܐ": 453,
      "ܕ": 454,
      "ܗ": 455,
      "ܝ": 456,
      "ܠ": 457,
      "ܢ": 458,
      "ܬ": 459,
      "ܲ": 460,
      "ܵ": 461,
      "ं": 462,
      "अ": 463,
      "ई": 464,
      "क": 465,
      "ग": 466,
      "ण": 467,
      "त": 468,
      "द": 469,
      "न": 470,
      "प": 471,
      "फ": 472,
      "ब": 473,
      "म": 474,
      "य": 475,
      "र": 476,
      "ल": 477,
      "व": 478,
      "स": 479,
      "ह": 480,
      "़": 481,
      "ा": 482,
      "ि": 483,
      "ु": 484,
      "ू": 485,
      "े": 486,
      "ै": 487,
      "्": 488,
      "আ": 489,
      "ল": 490,
      "হ": 491,
      "া": 492,
      "্": 493,
      "ਅ": 494,
      "ਲ": 495,
      "ਹ": 496,
      "ਾ": 497,
      "ੁ": 498,
      "ੱ": 499,
      "க": 500,
      "த": 501,
      "ம": 502,
      "ர": 503,
      "ள": 504,
      "ா": 505,
      "ி": 506,
      "ு": 507,
      "்": 508,
      "അ": 509,
      "ള": 510,
      "ഹ": 511,
      "ാ": 512,
      "്": 513,
      "ก": 514,
      "ค": 515,
      "ฆ": 516,
      "ง": 517,
      "จ": 518,
      "ช": 519,
      "ซ": 520,
      "ญ": 521,
      "ฐ": 522,
      "ณ": 523,
      "ด": 524,
      "ต": 525,
      "ท": 526,
      "ธ": 527,
      "น": 528,
      "บ": 529,
      "ป": 530,
      "พ": 531,
      "ฟ": 532,
      "ภ": 533,
      "ม": 534,
      "ย": 535,
      "ร": 536,
      "ล": 537,
      "ว": 538,
      "ศ": 539,
      "ษ": 540,
      "ส": 541,
      "ห": 542,
      "อ": 543,
      "ฮ": 544,
      "ะ": 545,
      "ั": 546,
      "า": 547,
      "ำ": 548,
      "ิ": 549,
      "ี": 550,
      "ึ": 551,
      "ื": 552,
      "ุ": 553,
      "เ": 554,
      "แ": 555,
      "โ": 556,
      "ไ": 557,
      "็": 558,
      "่": 559,
      "้": 560,
      "๊": 561,
      "์": 562,
      "Ⴀ": 563,
      "Ⴂ": 564,
      "Ⴃ": 565,
      "Ⴈ": 566,
      "Ⴌ": 567,
      "Ⴕ": 568,
      "Ⴟ": 569,
      "ა": 570,
      "ბ": 571,
      "გ": 572,
      "დ": 573,
      "ე": 574,
      "ვ": 575,
      "ზ": 576,
      "თ": 577,
      "ი": 578,
      "კ": 579,
      "ლ": 580,
      "მ": 581,
      "ნ": 582,
      "ო": 583,
      "პ": 584,
      "ჟ": 585,
      "რ": 586,
      "ს": 587,
      "ტ": 588,
      "უ": 589,
      "ფ": 590,
      "ქ": 591,
      "ღ": 592,
      "ყ": 593,
      "შ": 594,
      "ჩ": 595,
      "ც": 596,
      "ძ": 597,
      "წ": 598,
      "ჭ": 599,
      "ხ": 600,
      "ჯ": 601,
      "ჰ": 602,
      "ჱ": 603,
      "ჲ": 604,
      "ჳ": 605,
      "ჴ": 606,
      "ჵ": 607,
      "ჶ": 608,
      "ჷ": 609,
      "ჸ": 610,
      "ჹ": 611,
      "ჺ": 612,
      "჻": 613,
      "ር": 614,
      "ስ": 615,
      "ቆ": 616,
      "ቈ": 617,
      "ብ": 618,
      "ቲ": 619,
      "ታ": 620,
      "ን": 621,
      "ኖ": 622,
      "አ": 623,
      "ዕ": 624,
      "ዘ": 625,
      "ያ": 626,
      "ᠠ": 627,
      "ᠣ": 628,
      "ᠨ": 629,
      "ᠪ": 630,
      "ᠮ": 631,
      "ᠯ": 632,
      "ᠰ": 633,
      "ᠴ": 634,
      "ᠵ": 635,
      "ᠸ": 636,
      "ᡝ": 637,
      "ᡠ": 638,
      "ᡥ": 639,
      "ᡨ": 640,
      "ᡳ": 641,
      "ᡴ": 642,
      "ᡵ": 643,
      "ᵻ": 644,
      "ḍ": 645,
      "ḏ": 646,
      "Ḥ": 647,
      "ḥ": 648,
      "Ḫ": 649,
      "ḷ": 650,
      "ṃ": 651,
      "ṅ": 652,
      "ṇ": 653,
      "ṛ": 654,
      "ṣ": 655,
      "ṭ": 656,
      "ṯ": 657,
      "ạ": 658,
      "ả": 659,
      "ấ": 660,
      "ầ": 661,
      "ậ": 662,
      "ắ": 663,
      "ế": 664,
      "ễ": 665,
      "ệ": 666,
      "ị": 667,
      "ọ": 668,
      "ỏ": 669,
      "ỗ": 670,
      "ộ": 671,
      "ớ": 672,
      "ứ": 673,
      "ừ": 674,
      "ử": 675,
      "ữ": 676,
      "ỳ": 677,
      "ỹ": 678,
      "ἀ": 679,
      "ἁ": 680,
      "ἄ": 681,
      "Ἀ": 682,
      "ἐ": 683,
      "ἑ": 684,
      "ἦ": 685,
      "ἰ": 686,
      "ἴ": 687,
      "ἵ": 688,
      "ἶ": 689,
      "Ἰ": 690,
      "ὀ": 691,
      "ὁ": 692,
      "ὐ": 693,
      "ὑ": 694,
      "ὰ": 695,
      "ὶ": 696,
      "ὸ": 697,
      "ῆ": 698,
      "ῖ": 699,
      "ῥ": 700,
      "ῦ": 701,
      "Ῥ": 702,
      "ῶ": 703,
      "​": 704,
      "‌": 705,
      "‍": 706,
      "‐": 707,
      "‑": 708,
      "–": 709,
      "—": 710,
      "―": 711,
      "‘": 712,
      "’": 713,
      "“": 714,
      "”": 715,
      "„": 716,
      "†": 717,
      "‡": 718,
      "•": 719,
      "…": 720,
      "′": 721,
      "″": 722,
      "⁄": 723,
      "₣": 724,
      "₤": 725,
      "€": 726,
      "₱": 727,
      "₹": 728,
      "ℓ": 729,
      "⅓": 730,
      "⅔": 731,
      "↑": 732,
      "→": 733,
      "∈": 734,
      "∉": 735,
      "−": 736,
      "∗": 737,
      "√": 738,
      "∞": 739,
      "≠": 740,
      "≡": 741,
      "≤": 742,
      "≥": 743,
      "≪": 744,
      "⊕": 745,
      "⊙": 746,
      "⋅": 747,
      "⋆": 748,
      "①": 749,
      "☉": 750,
      "☫": 751,
      "♀": 752,
      "♠": 753,
      "♥": 754,
      "♭": 755,
      "♯": 756,
      "⚳": 757,
      "、": 758,
      "。": 759,
      "〈": 760,
      "〉": 761,
      "「": 762,
      "」": 763,
      "『": 764,
      "』": 765,
      "〒": 766,
      "〜": 767,
      "あ": 768,
      "い": 769,
      "う": 770,
      "え": 771,
      "お": 772,
      "か": 773,
      "が": 774,
      "き": 775,
      "ぎ": 776,
      "く": 777,
      "ぐ": 778,
      "け": 779,
      "こ": 780,
      "ご": 781,
      "さ": 782,
      "し": 783,
      "す": 784,
      "ず": 785,
      "せ": 786,
      "ぜ": 787,
      "た": 788,
      "だ": 789,
      "ち": 790,
      "っ": 791,
      "つ": 792,
      "て": 793,
      "で": 794,
      "と": 795,
      "ど": 796,
      "な": 797,
      "に": 798,
      "の": 799,
      "は": 800,
      "ば": 801,
      "ひ": 802,
      "ふ": 803,
      "へ": 804,
      "ほ": 805,
      "ぼ": 806,
      "ま": 807,
      "み": 808,
      "め": 809,
      "も": 810,
      "ゃ": 811,
      "ゆ": 812,
      "ょ": 813,
      "よ": 814,
      "ら": 815,
      "り": 816,
      "る": 817,
      "れ": 818,
      "わ": 819,
      "を": 820,
      "ん": 821,
      "ァ": 822,
      "ア": 823,
      "ィ": 824,
      "イ": 825,
      "ゥ": 826,
      "ウ": 827,
      "ェ": 828,
      "エ": 829,
      "ォ": 830,
      "オ": 831,
      "カ": 832,
      "ガ": 833,
      "キ": 834,
      "ギ": 835,
      "ク": 836,
      "グ": 837,
      "ゲ": 838,
      "コ": 839,
      "ゴ": 840,
      "サ": 841,
      "ザ": 842,
      "シ": 843,
      "ジ": 844,
      "ス": 845,
      "ズ": 846,
      "セ": 847,
      "ソ": 848,
      "タ": 849,
      "ダ": 850,
      "チ": 851,
      "ッ": 852,
      "ツ": 853,
      "テ": 854,
      "デ": 855,
      "ト": 856,
      "ド": 857,
      "ナ": 858,
      "ニ": 859,
      "ネ": 860,
      "ノ": 861,
      "ハ": 862,
      "バ": 863,
      "パ": 864,
      "フ": 865,
      "ブ": 866,
      "プ": 867,
      "ヘ": 868,
      "ベ": 869,
      "ペ": 870,
      "ボ": 871,
      "マ": 872,
      "ミ": 873,
      "ム": 874,
      "メ": 875,
      "モ": 876,
      "ャ": 877,
      "ュ": 878,
      "ョ": 879,
      "ヨ": 880,
      "ラ": 881,
      "リ": 882,
      "ル": 883,
      "レ": 884,
      "ロ": 885,
      "ワ": 886,
      "ン": 887,
      "ヴ": 888,
      "・": 889,
      "ー": 890,
      "一": 891,
      "七": 892,
      "三": 893,
      "下": 894,
      "与": 895,
      "世": 896,
      "丙": 897,
      "东": 898,
      "中": 899,
      "丸": 900,
      "主": 901,
      "乃": 902,
      "久": 903,
      "之": 904,
      "乙": 905,
      "九": 906,
      "争": 907,
      "事": 908,
      "二": 909,
      "云": 910,
      "五": 911,
      "京": 912,
      "人": 913,
      "今": 914,
      "付": 915,
      "代": 916,
      "份": 917,
      "伝": 918,
      "体": 919,
      "佛": 920,
      "作": 921,
      "例": 922,
      "侍": 923,
      "侗": 924,
      "依": 925,
      "信": 926,
      "傳": 927,
      "僕": 928,
      "儚": 929,
      "充": 930,
      "光": 931,
      "全": 932,
      "八": 933,
      "公": 934,
      "六": 935,
      "关": 936,
      "兵": 937,
      "其": 938,
      "具": 939,
      "典": 940,
      "円": 941,
      "再": 942,
      "决": 943,
      "冷": 944,
      "凤": 945,
      "処": 946,
      "凰": 947,
      "出": 948,
      "列": 949,
      "初": 950,
      "判": 951,
      "別": 952,
      "刹": 953,
      "前": 954,
      "剛": 955,
      "劇": 956,
      "劉": 957,
      "動": 958,
      "勝": 959,
      "化": 960,
      "北": 961,
      "十": 962,
      "半": 963,
      "华": 964,
      "南": 965,
      "厂": 966,
      "原": 967,
      "去": 968,
      "及": 969,
      "发": 970,
      "取": 971,
      "叡": 972,
      "古": 973,
      "可": 974,
      "台": 975,
      "史": 976,
      "司": 977,
      "同": 978,
      "名": 979,
      "吕": 980,
      "君": 981,
      "启": 982,
      "吳": 983,
      "吴": 984,
      "周": 985,
      "命": 986,
      "和": 987,
      "咲": 988,
      "响": 989,
      "善": 990,
      "囁": 991,
      "囚": 992,
      "四": 993,
      "国": 994,
      "國": 995,
      "園": 996,
      "圣": 997,
      "在": 998,
      "坂": 999,
      "坤": 1000,
      "型": 1001,
      "城": 1002,
      "堂": 1003,
      "堤": 1004,
      "場": 1005,
      "塘": 1006,
      "墙": 1007,
      "士": 1008,
      "夕": 1009,
      "外": 1010,
      "大": 1011,
      "天": 1012,
      "太": 1013,
      "夫": 1014,
      "女": 1015,
      "妙": 1016,
      "姉": 1017,
      "姚": 1018,
      "姫": 1019,
      "子": 1020,
      "孛": 1021,
      "孟": 1022,
      "学": 1023,
      "宇": 1024,
      "守": 1025,
      "安": 1026,
      "宋": 1027,
      "完": 1028,
      "宗": 1029,
      "宙": 1030,
      "定": 1031,
      "宝": 1032,
      "宫": 1033,
      "宮": 1034,
      "宴": 1035,
      "家": 1036,
      "寄": 1037,
      "寝": 1038,
      "寧": 1039,
      "对": 1040,
      "寺": 1041,
      "小": 1042,
      "少": 1043,
      "尾": 1044,
      "局": 1045,
      "展": 1046,
      "山": 1047,
      "屿": 1048,
      "岛": 1049,
      "岩": 1050,
      "岳": 1051,
      "川": 1052,
      "州": 1053,
      "巳": 1054,
      "巴": 1055,
      "市": 1056,
      "師": 1057,
      "平": 1058,
      "幸": 1059,
      "广": 1060,
      "庆": 1061,
      "府": 1062,
      "度": 1063,
      "座": 1064,
      "廟": 1065,
      "廬": 1066,
      "建": 1067,
      "式": 1068,
      "弔": 1069,
      "張": 1070,
      "彌": 1071,
      "彦": 1072,
      "彩": 1073,
      "影": 1074,
      "彼": 1075,
      "後": 1076,
      "御": 1077,
      "德": 1078,
      "必": 1079,
      "応": 1080,
      "思": 1081,
      "恋": 1082,
      "恩": 1083,
      "恵": 1084,
      "愚": 1085,
      "愛": 1086,
      "憑": 1087,
      "憶": 1088,
      "應": 1089,
      "懷": 1090,
      "成": 1091,
      "战": 1092,
      "戦": 1093,
      "戰": 1094,
      "房": 1095,
      "扈": 1096,
      "打": 1097,
      "技": 1098,
      "抄": 1099,
      "拉": 1100,
      "拘": 1101,
      "拳": 1102,
      "拾": 1103,
      "挑": 1104,
      "据": 1105,
      "揺": 1106,
      "攻": 1107,
      "放": 1108,
      "政": 1109,
      "散": 1110,
      "文": 1111,
      "斗": 1112,
      "斯": 1113,
      "新": 1114,
      "方": 1115,
      "旗": 1116,
      "日": 1117,
      "旦": 1118,
      "旭": 1119,
      "旺": 1120,
      "昌": 1121,
      "明": 1122,
      "星": 1123,
      "春": 1124,
      "晋": 1125,
      "景": 1126,
      "曦": 1127,
      "書": 1128,
      "月": 1129,
      "有": 1130,
      "望": 1131,
      "朝": 1132,
      "未": 1133,
      "本": 1134,
      "权": 1135,
      "李": 1136,
      "村": 1137,
      "杜": 1138,
      "束": 1139,
      "条": 1140,
      "来": 1141,
      "東": 1142,
      "松": 1143,
      "林": 1144,
      "柱": 1145,
      "案": 1146,
      "桜": 1147,
      "械": 1148,
      "梶": 1149,
      "棘": 1150,
      "椎": 1151,
      "楊": 1152,
      "楚": 1153,
      "業": 1154,
      "概": 1155,
      "榮": 1156,
      "橘": 1157,
      "機": 1158,
      "檻": 1159,
      "櫻": 1160,
      "欽": 1161,
      "歌": 1162,
      "正": 1163,
      "殻": 1164,
      "殿": 1165,
      "母": 1166,
      "毎": 1167,
      "比": 1168,
      "水": 1169,
      "汉": 1170,
      "江": 1171,
      "沂": 1172,
      "沙": 1173,
      "河": 1174,
      "治": 1175,
      "泉": 1176,
      "法": 1177,
      "泗": 1178,
      "波": 1179,
      "泣": 1180,
      "洛": 1181,
      "洪": 1182,
      "洲": 1183,
      "浦": 1184,
      "淹": 1185,
      "清": 1186,
      "游": 1187,
      "湖": 1188,
      "湯": 1189,
      "溫": 1190,
      "滿": 1191,
      "漢": 1192,
      "澄": 1193,
      "澤": 1194,
      "瀛": 1195,
      "火": 1196,
      "灯": 1197,
      "灵": 1198,
      "灼": 1199,
      "為": 1200,
      "焼": 1201,
      "熊": 1202,
      "熱": 1203,
      "營": 1204,
      "版": 1205,
      "牙": 1206,
      "物": 1207,
      "特": 1208,
      "犬": 1209,
      "狐": 1210,
      "狸": 1211,
      "玄": 1212,
      "王": 1213,
      "玩": 1214,
      "珂": 1215,
      "珙": 1216,
      "現": 1217,
      "球": 1218,
      "理": 1219,
      "琦": 1220,
      "琪": 1221,
      "琴": 1222,
      "瑣": 1223,
      "瓊": 1224,
      "生": 1225,
      "田": 1226,
      "画": 1227,
      "界": 1228,
      "留": 1229,
      "畢": 1230,
      "番": 1231,
      "異": 1232,
      "瘡": 1233,
      "白": 1234,
      "百": 1235,
      "的": 1236,
      "皮": 1237,
      "盟": 1238,
      "真": 1239,
      "石": 1240,
      "砲": 1241,
      "礁": 1242,
      "礮": 1243,
      "示": 1244,
      "祈": 1245,
      "祖": 1246,
      "祚": 1247,
      "神": 1248,
      "祠": 1249,
      "祭": 1250,
      "禮": 1251,
      "秀": 1252,
      "秋": 1253,
      "秦": 1254,
      "移": 1255,
      "稚": 1256,
      "空": 1257,
      "窓": 1258,
      "立": 1259,
      "竜": 1260,
      "章": 1261,
      "端": 1262,
      "籠": 1263,
      "精": 1264,
      "系": 1265,
      "約": 1266,
      "紅": 1267,
      "素": 1268,
      "紫": 1269,
      "絵": 1270,
      "編": 1271,
      "織": 1272,
      "绮": 1273,
      "羅": 1274,
      "義": 1275,
      "羽": 1276,
      "翔": 1277,
      "翠": 1278,
      "者": 1279,
      "耕": 1280,
      "聖": 1281,
      "肖": 1282,
      "股": 1283,
      "胡": 1284,
      "胤": 1285,
      "膀": 1286,
      "臂": 1287,
      "興": 1288,
      "艦": 1289,
      "良": 1290,
      "色": 1291,
      "花": 1292,
      "芳": 1293,
      "芽": 1294,
      "苑": 1295,
      "若": 1296,
      "英": 1297,
      "草": 1298,
      "荊": 1299,
      "薛": 1300,
      "薩": 1301,
      "藕": 1302,
      "藤": 1303,
      "藥": 1304,
      "蘄": 1305,
      "蘇": 1306,
      "血": 1307,
      "行": 1308,
      "術": 1309,
      "衛": 1310,
      "裁": 1311,
      "西": 1312,
      "規": 1313,
      "覺": 1314,
      "观": 1315,
      "解": 1316,
      "記": 1317,
      "詠": 1318,
      "誓": 1319,
      "語": 1320,
      "誡": 1321,
      "説": 1322,
      "誰": 1323,
      "謁": 1324,
      "謎": 1325,
      "许": 1326,
      "论": 1327,
      "读": 1328,
      "谭": 1329,
      "豪": 1330,
      "豫": 1331,
      "負": 1332,
      "貴": 1333,
      "費": 1334,
      "贵": 1335,
      "赤": 1336,
      "越": 1337,
      "趙": 1338,
      "足": 1339,
      "跡": 1340,
      "跳": 1341,
      "転": 1342,
      "辛": 1343,
      "近": 1344,
      "送": 1345,
      "逆": 1346,
      "遇": 1347,
      "運": 1348,
      "過": 1349,
      "遠": 1350,
      "選": 1351,
      "遺": 1352,
      "還": 1353,
      "那": 1354,
      "邦": 1355,
      "邱": 1356,
      "郁": 1357,
      "郎": 1358,
      "部": 1359,
      "郭": 1360,
      "都": 1361,
      "酈": 1362,
      "里": 1363,
      "野": 1364,
      "金": 1365,
      "鉄": 1366,
      "銀": 1367,
      "銃": 1368,
      "鋼": 1369,
      "錄": 1370,
      "錡": 1371,
      "錬": 1372,
      "鍵": 1373,
      "鎧": 1374,
      "鐵": 1375,
      "钱": 1376,
      "铁": 1377,
      "闘": 1378,
      "關": 1379,
      "闯": 1380,
      "防": 1381,
      "阿": 1382,
      "际": 1383,
      "陈": 1384,
      "限": 1385,
      "院": 1386,
      "陳": 1387,
      "陶": 1388,
      "陽": 1389,
      "隊": 1390,
      "階": 1391,
      "集": 1392,
      "雪": 1393,
      "雲": 1394,
      "霖": 1395,
      "霹": 1396,
      "靂": 1397,
      "韓": 1398,
      "音": 1399,
      "願": 1400,
      "顯": 1401,
      "颜": 1402,
      "風": 1403,
      "颱": 1404,
      "风": 1405,
      "館": 1406,
      "首": 1407,
      "香": 1408,
      "馬": 1409,
      "騎": 1410,
      "马": 1411,
      "高": 1412,
      "鬪": 1413,
      "魂": 1414,
      "鳥": 1415,
      "鶴": 1416,
      "黄": 1417,
      "黛": 1418,
      "龍": 1419,
      "대": 1420,
      "독": 1421,
      "라": 1422,
      "립": 1423,
      "병": 1424,
      "보": 1425,
      "부": 1426,
      "산": 1427,
      "알": 1428,
      "연": 1429,
      "운": 1430,
      "전": 1431,
      "제": 1432,
      "투": 1433,
      "ﬁ": 1434,
      "ﷲ": 1435,
      "ﻋ": 1436,
      "﻿": 1437,
      "／": 1438,
      "３": 1439,
      "～": 1440,
      "�": 1441,
      "##x": 1442,
      "##c": 1443,
      "##u": 1444,
      "##s": 1445,
      "##e": 1446,
      "##o": 1447,
      "##v": 1448,
      "##n": 1449,
      "##a": 1450,
      "##t": 1451,
      "##r": 1452,
      "##i": 1453,
      "##d": 1454,
      "##f": 1455,
      "##p": 1456,
      "##l": 1457,
      "##m": 1458,
      "##O": 1459,
      "##w": 1460,
      "##b": 1461,
      "##g": 1462,
      "##h": 1463,
      "##y": 1464,
      "##k": 1465,
      "##4": 1466,
      "##5": 1467,
      "##q": 1468,
      "##j": 1469,
      "##0": 1470,
      "##1": 1471,
      "##3": 1472,
      "##6": 1473,
      "##è": 1474,
      "##I": 1475,
      "##E": 1476,
      "##S": 1477,
      "##L": 1478,
      "##P": 1479,
      "##z": 1480,
      "##9": 1481,
      "##7": 1482,
      "##ö": 1483,
      "##κ": 1484,
      "##ρ": 1485,
      "##ί": 1486,
      "##δ": 1487,
      "##ε": 1488,
      "##ς": 1489,
      "##ş": 1490,
      "##2": 1491,
      "##ë": 1492,
      "##ü": 1493,
      "##K": 1494,
      "##M": 1495,
      "##A": 1496,
      "##X": 1497,
      "##ā": 1498,
      "##R": 1499,
      "##U": 1500,
      "##č": 1501,
      "##C": 1502,
      "##ث": 1503,
      "##م": 1504,
      "##د": 1505,
      "##ô": 1506,
      "##G": 1507,
      "##D": 1508,
      "##F": 1509,
      "##W": 1510,
      "##é": 1511,
      "##8": 1512,
      "##á": 1513,
      "##í": 1514,
      "##N": 1515,
      "##V": 1516,
      "##ي": 1517,
      "##س": 1518,
      "##ت": 1519,
      "##T": 1520,
      "##B": 1521,
      "##п": 1522,
      "##и": 1523,
      "##н": 1524,
      "##о": 1525,
      "##р": 1526,
      "##г": 1527,
      "##殻": 1528,
      "##機": 1529,
      "##動": 1530,
      "##隊": 1531,
      "##宗": 1532,
      "##政": 1533,
      "##צ": 1534,
      "##ב": 1535,
      "##ע": 1536,
      "##ó": 1537,
      "##ū": 1538,
      "##琴": 1539,
      "##绮": 1540,
      "##ا": 1541,
      "##ئ": 1542,
      "##ل": 1543,
      "##庆": 1544,
      "##河": 1545,
      "##J": 1546,
      "##Z": 1547,
      "##ל": 1548,
      "##ה": 1549,
      "##H": 1550,
      "##ä": 1551,
      "##â": 1552,
      "##ˈ": 1553,
      "##ṭ": 1554,
      "##ː": 1555,
      "##ś": 1556,
      "##ō": 1557,
      "##ŋ": 1558,
      "##ȟ": 1559,
      "##ï": 1560,
      "##ń": 1561,
      "##人": 1562,
      "##秀": 1563,
      "##歌": 1564,
      "##祚": 1565,
      "##ò": 1566,
      "##ž": 1567,
      "##š": 1568,
      "##ć": 1569,
      "##ְ": 1570,
      "##ד": 1571,
      "##ֵ": 1572,
      "##מ": 1573,
      "##ּ": 1574,
      "##י": 1575,
      "##ו": 1576,
      "##ç": 1577,
      "##だ": 1578,
      "##ま": 1579,
      "##り": 1580,
      "##の": 1581,
      "##中": 1582,
      "##へ": 1583,
      "##ß": 1584,
      "##ỏ": 1585,
      "##ǣ": 1586,
      "##ค": 1587,
      "##ร": 1588,
      "##ง": 1589,
      "##ก": 1590,
      "##า": 1591,
      "##แ": 1592,
      "##ม": 1593,
      "##î": 1594,
      "##ḥ": 1595,
      "##ʃ": 1596,
      "##衛": 1597,
      "##も": 1598,
      "##な": 1599,
      "##き": 1600,
      "##誓": 1601,
      "##い": 1602,
      "##花": 1603,
      "##邦": 1604,
      "##昌": 1605,
      "##命": 1606,
      "##を": 1607,
      "##解": 1608,
      "##放": 1609,
      "##つ": 1610,
      "##ა": 1611,
      "##春": 1612,
      "##月": 1613,
      "##抄": 1614,
      "##ú": 1615,
      "##再": 1616,
      "##遇": 1617,
      "##ッ": 1618,
      "##ラ": 1619,
      "##ー": 1620,
      "##ซ": 1621,
      "##ṃ": 1622,
      "##ê": 1623,
      "##æ": 1624,
      "##ł": 1625,
      "##ח": 1626,
      "##ֹ": 1627,
      "##ą": 1628,
      "##Y": 1629,
      "##α": 1630,
      "##豫": 1631,
      "##ʻ": 1632,
      "##ा": 1633,
      "##द": 1634,
      "##ø": 1635,
      "##ാ": 1636,
      "##ഹ": 1637,
      "##τ": 1638,
      "##ή": 1639,
      "##ι": 1640,
      "##ο": 1641,
      "##ν": 1642,
      "##ñ": 1643,
      "##į": 1644,
      "##ǫ": 1645,
      "##後": 1646,
      "##鳥": 1647,
      "##羽": 1648,
      "##院": 1649,
      "##初": 1650,
      "##度": 1651,
      "##百": 1652,
      "##首": 1653,
      "##θ": 1654,
      "##ώ": 1655,
      "##π": 1656,
      "##υ": 1657,
      "##ə": 1658,
      "##ɪ": 1659,
      "##ă": 1660,
      "##霖": 1661,
      "##わ": 1662,
      "##ė": 1663,
      "##μ": 1664,
      "##η": 1665,
      "##械": 1666,
      "##鎧": 1667,
      "##ɑ": 1668,
      "##ʊ": 1669,
      "##ɔ": 1670,
      "##ʔ": 1671,
      "##ɛ": 1672,
      "##ů": 1673,
      "##σ": 1674,
      "##ִ": 1675,
      "##ָ": 1676,
      "##რ": 1677,
      "##გ": 1678,
      "##ვ": 1679,
      "##ლ": 1680,
      "##ო": 1681,
      "##ნ": 1682,
      "##ი": 1683,
      "##ω": 1684,
      "##β": 1685,
      "##γ": 1686,
      "##ュ": 1687,
      "##ナ": 1688,
      "##ミ": 1689,
      "##ス": 1690,
      "##с": 1691,
      "##т": 1692,
      "##Q": 1693,
      "##城": 1694,
      "##血": 1695,
      "##闘": 1696,
      "##編": 1697,
      "##ð": 1698,
      "##技": 1699,
      "##母": 1700,
      "##殿": 1701,
      "##靂": 1702,
      "##火": 1703,
      "##球": 1704,
      "##å": 1705,
      "##ṛ": 1706,
      "##ַ": 1707,
      "##ɫ": 1708,
      "##ܲ": 1709,
      "##ܠ": 1710,
      "##ܵ": 1711,
      "##ܗ": 1712,
      "##ܐ": 1713,
      "##λ": 1714,
      "##פ": 1715,
      "##ֶ": 1716,
      "##ق": 1717,
      "##ش": 1718,
      "##و": 1719,
      "##リ": 1720,
      "##オ": 1721,
      "##ワ": 1722,
      "##ル": 1723,
      "##ド": 1724,
      "##ī": 1725,
      "##ã": 1726,
      "##雪": 1727,
      "##砲": 1728,
      "##淹": 1729,
      "##金": 1730,
      "##山": 1731,
      "##đ": 1732,
      "##ɽ": 1733,
      "##û": 1734,
      "##エ": 1735,
      "##ダ": 1736,
      "##风": 1737,
      "##ό": 1738,
      "##ე": 1739,
      "##א": 1740,
      "##ấ": 1741,
      "##絵": 1742,
      "##ę": 1743,
      "##ֱ": 1744,
      "##ს": 1745,
      "##ტ": 1746,
      "##ჱ": 1747,
      "##ț": 1748,
      "##ี": 1749,
      "##ḍ": 1750,
      "##田": 1751,
      "##พ": 1752,
      "##ั": 1753,
      "##ש": 1754,
      "##ר": 1755,
      "##ᡝ": 1756,
      "##ᡨ": 1757,
      "##ᡵ": 1758,
      "##子": 1759,
      "##翠": 1760,
      "##英": 1761,
      "##ዕ": 1762,
      "##ቆ": 1763,
      "##ብ": 1764,
      "##ỳ": 1765,
      "##誡": 1766,
      "##ン": 1767,
      "##グ": 1768,
      "##ム": 1769,
      "##チ": 1770,
      "##ェ": 1771,
      "##越": 1772,
      "##し": 1773,
      "##異": 1774,
      "##と": 1775,
      "##ボ": 1776,
      "##ク": 1777,
      "##เ": 1778,
      "##ื": 1779,
      "##安": 1780,
      "##ி": 1781,
      "##க": 1782,
      "##ᠣ": 1783,
      "##ᡴ": 1784,
      "##ᠪ": 1785,
      "##ᡠ": 1786,
      "##ᡥ": 1787,
      "##ᠠ": 1788,
      "##ǝ": 1789,
      "##ħ": 1790,
      "##ἶ": 1791,
      "##那": 1792,
      "##ת": 1793,
      "##ɐ": 1794,
      "##瓊": 1795,
      "##马": 1796,
      "##岛": 1797,
      "##屿": 1798,
      "##争": 1799,
      "##端": 1800,
      "##之": 1801,
      "##判": 1802,
      "##决": 1803,
      "##ğ": 1804,
      "##ŏ": 1805,
      "##а": 1806,
      "##л": 1807,
      "##ю": 1808,
      "##柱": 1809,
      "##雲": 1810,
      "##न": 1811,
      "##ई": 1812,
      "##散": 1813,
      "##關": 1814,
      "##ウ": 1815,
      "##ィ": 1816,
      "##ם": 1817,
      "##ı": 1818,
      "##战": 1819,
      "##斗": 1820,
      "##ז": 1821,
      "##ά": 1822,
      "##φ": 1823,
      "##沂": 1824,
      "##χ": 1825,
      "##ต": 1826,
      "##อ": 1827,
      "##ب": 1828,
      "##ن": 1829,
      "##נ": 1830,
      "##כ": 1831,
      "##в": 1832,
      "##ず": 1833,
      "##め": 1834,
      "##理": 1835,
      "##ơ": 1836,
      "##ψ": 1837,
      "##ブ": 1838,
      "##х": 1839,
      "##ᡳ": 1840,
      "##風": 1841,
      "##ツ": 1842,
      "##ネ": 1843,
      "##れ": 1844,
      "##姫": 1845,
      "##君": 1846,
      "##à": 1847,
      "##ē": 1848,
      "##州": 1849,
      "##治": 1850,
      "##夫": 1851,
      "##ป": 1852,
      "##ย": 1853,
      "##が": 1854,
      "##う": 1855,
      "##取": 1856,
      "##型": 1857,
      "##戦": 1858,
      "##艦": 1859,
      "##მ": 1860,
      "##თ": 1861,
      "##უ": 1862,
      "##イ": 1863,
      "##Ē": 1864,
      "##ס": 1865,
      "##ɡ": 1866,
      "##ֳ": 1867,
      "##ט": 1868,
      "##ף": 1869,
      "##さ": 1870,
      "##祈": 1871,
      "##全": 1872,
      "##ư": 1873,
      "##彦": 1874,
      "##ũ": 1875,
      "##º": 1876,
      "##ы": 1877,
      "##й": 1878,
      "##ṯ": 1879,
      "##ˤ": 1880,
      "##ˑ": 1881,
      "##ậ": 1882,
      "##女": 1883,
      "##は": 1884,
      "##お": 1885,
      "##姉": 1886,
      "##に": 1887,
      "##恋": 1888,
      "##て": 1889,
      "##る": 1890,
      "##丸": 1891,
      "##ɒ": 1892,
      "##牙": 1893,
      "##伝": 1894,
      "##説": 1895,
      "##原": 1896,
      "##画": 1897,
      "##集": 1898,
      "##ザ": 1899,
      "##ズ": 1900,
      "##з": 1901,
      "##έ": 1902,
      "##ᵻ": 1903,
      "##颜": 1904,
      "##望": 1905,
      "##ロ": 1906,
      "##ト": 1907,
      "##キ": 1908,
      "##ゴ": 1909,
      "##ʼ": 1910,
      "##წ": 1911,
      "##ფ": 1912,
      "##ỗ": 1913,
      "##野": 1914,
      "##м": 1915,
      "##ू": 1916,
      "##फ": 1917,
      "##ɾ": 1918,
      "##ῶ": 1919,
      "##ﬁ": 1920,
      "##ʋ": 1921,
      "##น": 1922,
      "##ว": 1923,
      "##ิ": 1924,
      "##จ": 1925,
      "##ไ": 1926,
      "##ท": 1927,
      "##บ": 1928,
      "##ɳ": 1929,
      "##ṇ": 1930,
      "##ხ": 1931,
      "##ť": 1932,
      "##劇": 1933,
      "##場": 1934,
      "##ș": 1935,
      "##ه": 1936,
      "##臂": 1937,
      "##膀": 1938,
      "##ג": 1939,
      "##か": 1940,
      "##た": 1941,
      "##ץ": 1942,
      "##足": 1943,
      "##跡": 1944,
      "##ן": 1945,
      "##転": 1946,
      "##裁": 1947,
      "##和": 1948,
      "##川": 1949,
      "##浦": 1950,
      "##宮": 1951,
      "##物": 1952,
      "##語": 1953,
      "##Θ": 1954,
      "##Ο": 1955,
      "##Σ": 1956,
      "##ĕ": 1957,
      "##ʁ": 1958,
      "##沙": 1959,
      "##デ": 1960,
      "##ア": 1961,
      "##曦": 1962,
      "##ֲ": 1963,
      "##セ": 1964,
      "##勝": 1965,
      "##ộ": 1966,
      "##ξ": 1967,
      "##œ": 1968,
      "##ì": 1969,
      "##ف": 1970,
      "##宋": 1971,
      "##興": 1972,
      "##岳": 1973,
      "##王": 1974,
      "##傳": 1975,
      "##ण": 1976,
      "##ि": 1977,
      "##ं": 1978,
      "##ग": 1979,
      "##ý": 1980,
      "##特": 1981,
      "##別": 1982,
      "##版": 1983,
      "##ἰ": 1984,
      "##ὸ": 1985,
      "##ษ": 1986,
      "##ฐ": 1987,
      "##彌": 1988,
      "##遠": 1989,
      "##ゆ": 1990,
      "##ʌ": 1991,
      "##ذ": 1992,
      "##ة": 1993,
      "##っ": 1994,
      "##ょ": 1995,
      "##大": 1996,
      "##ֻ": 1997,
      "##番": 1998,
      "##宝": 1999,
      "##礮": 2000,
      "##ʿ": 2001,
      "##廟": 2002,
      "##ὶ": 2003,
      "##ἴ": 2004,
      "##ῖ": 2005,
      "##ር": 2006,
      "##አ": 2007,
      "##ׂ": 2008,
      "##テ": 2009,
      "##バ": 2010,
      "##宙": 2011,
      "##東": 2012,
      "##京": 2013,
      "##現": 2014,
      "##ヴ": 2015,
      "##ァ": 2016,
      "##３": 2017,
      "##ስ": 2018,
      "##ታ": 2019,
      "##ን": 2020,
      "##ቲ": 2021,
      "##ኖ": 2022,
      "##к": 2023,
      "##房": 2024,
      "##ʷ": 2025,
      "##Ä": 2026,
      "##シ": 2027,
      "##ř": 2028,
      "##ɭ": 2029,
      "##ば": 2030,
      "##ی": 2031,
      "##ṣ": 2032,
      "##丙": 2033,
      "##É": 2034,
      "##ʕ": 2035,
      "##贵": 2036,
      "##ช": 2037,
      "##ニ": 2038,
      "##よ": 2039,
      "##ら": 2040,
      "##囁": 2041,
      "##ὑ": 2042,
      "##彩": 2043,
      "##ù": 2044,
      "##ữ": 2045,
      "##可": 2046,
      "##孛": 2047,
      "##羅": 2048,
      "##文": 2049,
      "##化": 2050,
      "##事": 2051,
      "##業": 2052,
      "##股": 2053,
      "##份": 2054,
      "##有": 2055,
      "##限": 2056,
      "##公": 2057,
      "##司": 2058,
      "##ر": 2059,
      "##ᠨ": 2060,
      "##ᠵ": 2061,
      "##ᠰ": 2062,
      "##ק": 2063,
      "##ừ": 2064,
      "##ع": 2065,
      "##拉": 2066,
      "##ल": 2067,
      "##部": 2068,
      "##ء": 2069,
      "##ʒ": 2070,
      "##أ": 2071,
      "##夕": 2072,
      "##焼": 2073,
      "##け": 2074,
      "##ű": 2075,
      "##在": 2076,
      "##云": 2077,
      "##清": 2078,
      "##く": 2079,
      "##犬": 2080,
      "##ч": 2081,
      "##е": 2082,
      "##波": 2083,
      "##義": 2084,
      "##信": 2085,
      "##正": 2086,
      "##芳": 2087,
      "##狸": 2088,
      "##精": 2089,
      "##運": 2090,
      "##乙": 2091,
      "##一": 2092,
      "##村": 2093,
      "##ζ": 2094,
      "##ك": 2095,
      "##ੱ": 2096,
      "##ਲ": 2097,
      "##ਾ": 2098,
      "##ਹ": 2099,
      "##广": 2100,
      "##日": 2101,
      "##玩": 2102,
      "##具": 2103,
      "##厂": 2104,
      "##ầ": 2105,
      "##ォ": 2106,
      "##ゥ": 2107,
      "##ɜ": 2108,
      "##ż": 2109,
      "##ὰ": 2110,
      "##ぐ": 2111,
      "##み": 2112,
      "##ţ": 2113,
      "##あ": 2114,
      "##束": 2115,
      "##守": 2116,
      "##ح": 2117,
      "##ٰ": 2118,
      "##瀛": 2119,
      "##ล": 2120,
      "##ੁ": 2121,
      "##ύ": 2122,
      "##サ": 2123,
      "##規": 2124,
      "##覺": 2125,
      "##ׁ": 2126,
      "##灵": 2127,
      "##宫": 2128,
      "##ˌ": 2129,
      "##ณ": 2130,
      "##ď": 2131,
      "##ち": 2132,
      "##ゃ": 2133,
      "##ん": 2134,
      "##旗": 2135,
      "##寧": 2136,
      "##尾": 2137,
      "##狐": 2138,
      "##є": 2139,
      "##二": 2140,
      "##ĭ": 2141,
      "##祖": 2142,
      "##光": 2143,
      "##ห": 2144,
      "##ญ": 2145,
      "##ส": 2146,
      "##ธ": 2147,
      "##据": 2148,
      "##与": 2149,
      "##启": 2150,
      "##示": 2151,
      "##ệ": 2152,
      "##六": 2153,
      "##条": 2154,
      "##旭": 2155,
      "##代": 2156,
      "##藥": 2157,
      "##師": 2158,
      "##ハ": 2159,
      "##フ": 2160,
      "##タ": 2161,
      "##ジ": 2162,
      "##ῆ": 2163,
      "##ペ": 2164,
      "##ャ": 2165,
      "##ह": 2166,
      "##ъ": 2167,
      "##す": 2168,
      "##ひ": 2169,
      "##ő": 2170,
      "##錡": 2171,
      "##დ": 2172,
      "##া": 2173,
      "##হ": 2174,
      "##銃": 2175,
      "##瘡": 2176,
      "##ử": 2177,
      "##岩": 2178,
      "##礁": 2179,
      "##南": 2180,
      "##案": 2181,
      "##的": 2182,
      "##国": 2183,
      "##际": 2184,
      "##法": 2185,
      "##读": 2186,
      "##ả": 2187,
      "##定": 2188,
      "##滿": 2189,
      "##洲": 2190,
      "##祭": 2191,
      "##神": 2192,
      "##天": 2193,
      "##典": 2194,
      "##禮": 2195,
      "##ჳ": 2196,
      "##ै": 2197,
      "##व": 2198,
      "##क": 2199,
      "##ŷ": 2200,
      "##館": 2201,
      "##乃": 2202,
      "##泉": 2203,
      "##学": 2204,
      "##稚": 2205,
      "##ള": 2206,
      "##プ": 2207,
      "##平": 2208,
      "##ứ": 2209,
      "##苑": 2210,
      "##ჲ": 2211,
      "##世": 2212,
      "##ᠯ": 2213,
      "##レ": 2214,
      "##家": 2215,
      "##塘": 2216,
      "##ш": 2217,
      "##成": 2218,
      "##祠": 2219,
      "##र": 2220,
      "##부": 2221,
      "##대": 2222,
      "##ῦ": 2223,
      "##懷": 2224,
      "##游": 2225,
      "##草": 2226,
      "##太": 2227,
      "##メ": 2228,
      "##為": 2229,
      "##方": 2230,
      "##体": 2231,
      "##ʉ": 2232,
      "##Ā": 2233,
      "##籠": 2234,
      "##明": 2235,
      "##ص": 2236,
      "##я": 2237,
      "##墙": 2238,
      "##依": 2239,
      "##ც": 2240,
      "##界": 2241,
      "##七": 2242,
      "##竜": 2243,
      "##遺": 2244,
      "##愚": 2245,
      "##跳": 2246,
      "##還": 2247,
      "##願": 2248,
      "##例": 2249,
      "##空": 2250,
      "##郎": 2251,
      "##ฮ": 2252,
      "##憶": 2253,
      "##棘": 2254,
      "##旦": 2255,
      "##д": 2256,
      "##ど": 2257,
      "##ц": 2258,
      "##ь": 2259,
      "##ḏ": 2260,
      "##ǔ": 2261,
      "##叡": 2262,
      "##Ĕ": 2263,
      "##記": 2264,
      "##ṅ": 2265,
      "##þ": 2266,
      "##ớ": 2267,
      "##付": 2268,
      "##円": 2269,
      "##寺": 2270,
      "##ল": 2271,
      "##素": 2272,
      "##珙": 2273,
      "##关": 2274,
      "##宴": 2275,
      "##خ": 2276,
      "##Ō": 2277,
      "##ȯ": 2278,
      "##榮": 2279,
      "##モ": 2280,
      "##園": 2281,
      "##名": 2282,
      "##負": 2283,
      "##列": 2284,
      "##真": 2285,
      "##外": 2286,
      "##作": 2287,
      "##戰": 2288,
      "##鬪": 2289,
      "##剛": 2290,
      "##兵": 2291,
      "##主": 2292,
      "##ḷ": 2293,
      "##ノ": 2294,
      "##ễ": 2295,
      "##顯": 2296,
      "##白": 2297,
      "##权": 2298,
      "##及": 2299,
      "##其": 2300,
      "##对": 2301,
      "##新": 2302,
      "##系": 2303,
      "##东": 2304,
      "##盟": 2305,
      "##发": 2306,
      "##展": 2307,
      "##影": 2308,
      "##响": 2309,
      "##ě": 2310,
      "##景": 2311,
      "##ỹ": 2312,
      "##라": 2313,
      "##侗": 2314,
      "##ắ": 2315,
      "##里": 2316,
      "##ị": 2317,
      "##ọ": 2318,
      "##八": 2319,
      "##色": 2320,
      "##巳": 2321,
      "##泣": 2322,
      "##蘄": 2323,
      "##錄": 2324,
      "##音": 2325,
      "##揺": 2326,
      "##ご": 2327,
      "##充": 2328,
      "##澤": 2329,
      "##Á": 2330,
      "##ạ": 2331,
      "##え": 2332,
      "##マ": 2333,
      "##檻": 2334,
      "##星": 2335,
      "##漢": 2336,
      "##ギ": 2337,
      "##ソ": 2338,
      "##ň": 2339,
      "##琦": 2340,
      "##台": 2341,
      "##同": 2342,
      "##打": 2343,
      "##陶": 2344,
      "##三": 2345,
      "##魂": 2346,
      "##凰": 2347,
      "##琪": 2348,
      "##こ": 2349,
      "##鋼": 2350,
      "##ж": 2351,
      "##應": 2352,
      "##送": 2353,
      "##局": 2354,
      "##산": 2355,
      "##전": 2356,
      "##투": 2357,
      "##巴": 2358,
      "##旺": 2359,
      "##溫": 2360,
      "##拘": 2361,
      "##留": 2362,
      "##營": 2363,
      "##ぎ": 2364,
      "##去": 2365,
      "##思": 2366,
      "##出": 2367,
      "##恩": 2368,
      "##ὐ": 2369,
      "##士": 2370,
      "##ź": 2371,
      "##إ": 2372,
      "##ョ": 2373,
      "##у": 2374,
      "##来": 2375,
      "##挑": 2376,
      "##者": 2377,
      "##स": 2378,
      "##ु": 2379,
      "##े": 2380,
      "##応": 2381,
      "##珂": 2382,
      "##國": 2383,
      "##秋": 2384,
      "##府": 2385,
      "##本": 2386,
      "##少": 2387,
      "##ʲ": 2388,
      "##御": 2389,
      "##幸": 2390,
      "##建": 2391,
      "##华": 2392,
      "##四": 2393,
      "##式": 2394,
      "##拳": 2395,
      "##ܕ": 2396,
      "##ܝ": 2397,
      "##ܢ": 2398,
      "##ܬ": 2399,
      "##ฟ": 2400,
      "##ǎ": 2401,
      "##良": 2402,
      "##防": 2403,
      "##瑣": 2404,
      "##灼": 2405,
      "##熱": 2406,
      "##都": 2407,
      "##市": 2408,
      "##ภ": 2409,
      "##ด": 2410,
      "##독": 2411,
      "##립": 2412,
      "##보": 2413,
      "##병": 2414,
      "##연": 2415,
      "##ガ": 2416,
      "##江": 2417,
      "##湖": 2418,
      "##ะ": 2419,
      "##ุ": 2420,
      "##โ": 2421,
      "##ฆ": 2422,
      "##鍵": 2423,
      "##ᠴ": 2424,
      "##生": 2425,
      "##ế": 2426,
      "##ų": 2427,
      "##錬": 2428,
      "##術": 2429,
      "##寄": 2430,
      "##せ": 2431,
      "##書": 2432,
      "##ἵ": 2433,
      "##鶴": 2434,
      "##ா": 2435,
      "##ர": 2436,
      "##咲": 2437,
      "##憑": 2438,
      "##ึ": 2439,
      "##堤": 2440,
      "##で": 2441,
      "##概": 2442,
      "##ு": 2443,
      "##ள": 2444,
      "##十": 2445,
      "##汉": 2446,
      "##妙": 2447,
      "##观": 2448,
      "##ぜ": 2449,
      "##愛": 2450,
      "##ქ": 2451,
      "##選": 2452,
      "##ˁ": 2453,
      "##章": 2454,
      "##he": 2455,
      "the": 2456,
      "##er": 2457,
      "##in": 2458,
      "##on": 2459,
      "##ed": 2460,
      "##nd": 2461,
      "##at": 2462,
      "##or": 2463,
      "##es": 2464,
      "##en": 2465,
      "##ar": 2466,
      "of": 2467,
      "##an": 2468,
      "##al": 2469,
      "in": 2470,
      "##it": 2471,
      "##ing": 2472,
      "##is": 2473,
      "##as": 2474,
      "and": 2475,
      "to": 2476,
      "##ic": 2477,
      "##ou": 2478,
      "##ion": 2479,
      "##re": 2480,
      "##om": 2481,
      "##el": 2482,
      "##il": 2483,
      "##ec": 2484,
      "##ent": 2485,
      "th": 2486,
      "##st": 2487,
      "##am": 2488,
      "##et": 2489,
      "##ro": 2490,
      "##ac": 2491,
      "##ad": 2492,
      "was": 2493,
      "##ur": 2494,
      "##ol": 2495,
      "on": 2496,
      "The": 2497,
      "##ly": 2498,
      "##ir": 2499,
      "##le": 2500,
      "for": 2501,
      "##iv": 2502,
      "##id": 2503,
      "##ter": 2504,
      "##ig": 2505,
      "##ot": 2506,
      "as": 2507,
      "##ow": 2508,
      "##ith": 2509,
      "##ut": 2510,
      "##im": 2511,
      "##ay": 2512,
      "st": 2513,
      "##em": 2514,
      "##ation": 2515,
      "that": 2516,
      "be": 2517,
      "with": 2518,
      "##ers": 2519,
      "##ts": 2520,
      "re": 2521,
      "wh": 2522,
      "is": 2523,
      "##us": 2524,
      "by": 2525,
      "##th": 2526,
      "##ch": 2527,
      "##ul": 2528,
      "##ver": 2529,
      "al": 2530,
      "con": 2531,
      "##ce": 2532,
      "at": 2533,
      "19": 2534,
      "##and": 2535,
      "##os": 2536,
      "an": 2537,
      "##ain": 2538,
      "##her": 2539,
      "##ag": 2540,
      "##av": 2541,
      "fr": 2542,
      "##um": 2543,
      "##est": 2544,
      "his": 2545,
      "##od": 2546,
      "##ct": 2547,
      "##ess": 2548,
      "from": 2549,
      "he": 2550,
      "##ri": 2551,
      "##un": 2552,
      "com": 2553,
      "##ap": 2554,
      "pro": 2555,
      "##00": 2556,
      "##op": 2557,
      "##ies": 2558,
      "##ist": 2559,
      "##ear": 2560,
      "##ew": 2561,
      "In": 2562,
      "##ere": 2563,
      "su": 2564,
      "##ld": 2565,
      "##if": 2566,
      "##all": 2567,
      "##ill": 2568,
      "##igh": 2569,
      "##ect": 2570,
      "de": 2571,
      "##ich": 2572,
      "##ak": 2573,
      "##ate": 2574,
      "were": 2575,
      "##ber": 2576,
      "##ard": 2577,
      "##oc": 2578,
      "##ab": 2579,
      "##ort": 2580,
      "##ong": 2581,
      "it": 2582,
      "or": 2583,
      "se": 2584,
      "ex": 2585,
      "##pp": 2586,
      "ch": 2587,
      "##ud": 2588,
      "##gh": 2589,
      "##art": 2590,
      "##ity": 2591,
      "##se": 2592,
      "##ated": 2593,
      "pl": 2594,
      "##ame": 2595,
      "sh": 2596,
      "##ive": 2597,
      "##ant": 2598,
      "##ore": 2599,
      "had": 2600,
      "are": 2601,
      "##rou": 2602,
      "##ip": 2603,
      "##ack": 2604,
      "##our": 2605,
      "##ov": 2606,
      "St": 2607,
      "which": 2608,
      "sp": 2609,
      "##ian": 2610,
      "##ell": 2611,
      "##ge": 2612,
      "##ast": 2613,
      "not": 2614,
      "##nt": 2615,
      "##ally": 2616,
      "pr": 2617,
      "##ment": 2618,
      "tr": 2619,
      "##ia": 2620,
      "##rit": 2621,
      "##ost": 2622,
      "##ord": 2623,
      "##ine": 2624,
      "##qu": 2625,
      "##pt": 2626,
      "##ary": 2627,
      "##ther": 2628,
      "##ave": 2629,
      "rec": 2630,
      "le": 2631,
      "##ust": 2632,
      "Ch": 2633,
      "200": 2634,
      "##ight": 2635,
      "##ie": 2636,
      "##pl": 2637,
      "##ish": 2638,
      "##cc": 2639,
      "##irst": 2640,
      "##ous": 2641,
      "inc": 2642,
      "but": 2643,
      "##out": 2644,
      "##fter": 2645,
      "##ould": 2646,
      "##ial": 2647,
      "##ions": 2648,
      "##og": 2649,
      "int": 2650,
      "cont": 2651,
      "##ue": 2652,
      "whe": 2653,
      "ar": 2654,
      "their": 2655,
      "##ical": 2656,
      "##so": 2657,
      "##ok": 2658,
      "first": 2659,
      "##ure": 2660,
      "its": 2661,
      "##per": 2662,
      "her": 2663,
      "##ff": 2664,
      "##ra": 2665,
      "##ub": 2666,
      "20": 2667,
      "He": 2668,
      "##wo": 2669,
      "##hed": 2670,
      "cl": 2671,
      "##ru": 2672,
      "##ign": 2673,
      "##ass": 2674,
      "##ome": 2675,
      "##mer": 2676,
      "##ater": 2677,
      "also": 2678,
      "res": 2679,
      "ab": 2680,
      "##oll": 2681,
      "ad": 2682,
      "##ire": 2683,
      "18": 2684,
      "##ork": 2685,
      "en": 2686,
      "##ide": 2687,
      "##ond": 2688,
      "rel": 2689,
      "##age": 2690,
      "##ans": 2691,
      "##own": 2692,
      "have": 2693,
      "one": 2694,
      "un": 2695,
      "##ime": 2696,
      "##orm": 2697,
      "##ence": 2698,
      "##end": 2699,
      "per": 2700,
      "Th": 2701,
      "##ry": 2702,
      "##ough": 2703,
      "##iz": 2704,
      "##du": 2705,
      "##ound": 2706,
      "has": 2707,
      "two": 2708,
      "sc": 2709,
      "been": 2710,
      "##ile": 2711,
      "##ory": 2712,
      "dis": 2713,
      "who": 2714,
      "##ely": 2715,
      "Al": 2716,
      "bec": 2717,
      "all": 2718,
      "year": 2719,
      "##ree": 2720,
      "##ations": 2721,
      "##ey": 2722,
      "##uring": 2723,
      "##land": 2724,
      "##ance": 2725,
      "##ition": 2726,
      "##pr": 2727,
      "app": 2728,
      "this": 2729,
      "ag": 2730,
      "des": 2731,
      "ser": 2732,
      "##lud": 2733,
      "##ach": 2734,
      "##act": 2735,
      "they": 2736,
      "play": 2737,
      "##ade": 2738,
      "other": 2739,
      "off": 2740,
      "comp": 2741,
      "201": 2742,
      "##ice": 2743,
      "over": 2744,
      "man": 2745,
      "##ib": 2746,
      "after": 2747,
      "##ember": 2748,
      "It": 2749,
      "##ik": 2750,
      "##ric": 2751,
      "##ult": 2752,
      "part": 2753,
      "us": 2754,
      "##ark": 2755,
      "##ang": 2756,
      "im": 2757,
      "out": 2758,
      "##urn": 2759,
      "##over": 2760,
      "##wn": 2761,
      "att": 2762,
      "##ite": 2763,
      "##eas": 2764,
      "##ace": 2765,
      "##ount": 2766,
      "includ": 2767,
      "Un": 2768,
      "up": 2769,
      "##ced": 2770,
      "##ens": 2771,
      "##ep": 2772,
      "##ail": 2773,
      "time": 2774,
      "##ents": 2775,
      "On": 2776,
      "pre": 2777,
      "would": 2778,
      "##ings": 2779,
      "into": 2780,
      "him": 2781,
      "##we": 2782,
      "##ors": 2783,
      "##amp": 2784,
      "##ind": 2785,
      "ev": 2786,
      "##ward": 2787,
      "she": 2788,
      "##oin": 2789,
      "##man": 2790,
      "##ited": 2791,
      "##ates": 2792,
      "we": 2793,
      "comm": 2794,
      "##ild": 2795,
      "##nder": 2796,
      "##ction": 2797,
      "##oy": 2798,
      "##rough": 2799,
      "##ied": 2800,
      "ne": 2801,
      "##tern": 2802,
      "more": 2803,
      "##ng": 2804,
      "##les": 2805,
      "##ood": 2806,
      "##te": 2807,
      "##able": 2808,
      "##ev": 2809,
      "##iss": 2810,
      "##ons": 2811,
      "##rib": 2812,
      "##ose": 2813,
      "##ock": 2814,
      "##ces": 2815,
      "##ss": 2816,
      "when": 2817,
      "##att": 2818,
      "work": 2819,
      "##old": 2820,
      "##fer": 2821,
      "Ar": 2822,
      "##are": 2823,
      "##ick": 2824,
      "Fr": 2825,
      "##ted": 2826,
      "bet": 2827,
      "##aw": 2828,
      "##ilm": 2829,
      "new": 2830,
      "##port": 2831,
      "##ubl": 2832,
      "##ake": 2833,
      "fe": 2834,
      "##ious": 2835,
      "fl": 2836,
      "##round": 2837,
      "cons": 2838,
      "##one": 2839,
      "##aus": 2840,
      "##inal": 2841,
      "cent": 2842,
      "##ath": 2843,
      "them": 2844,
      "##rop": 2845,
      "sec": 2846,
      "##ix": 2847,
      "##gan": 2848,
      "rem": 2849,
      "##ft": 2850,
      "dec": 2851,
      "game": 2852,
      "##way": 2853,
      "only": 2854,
      "##reat": 2855,
      "##ual": 2856,
      "Mar": 2857,
      "##eld": 2858,
      "##ved": 2859,
      "##form": 2860,
      "kn": 2861,
      "most": 2862,
      "##ason": 2863,
      "ear": 2864,
      "##oth": 2865,
      "during": 2866,
      "##ween": 2867,
      "can": 2868,
      "song": 2869,
      "te": 2870,
      "##ollow": 2871,
      "char": 2872,
      "##hip": 2873,
      "##ob": 2874,
      "##orth": 2875,
      "##ters": 2876,
      "##ered": 2877,
      "##iew": 2878,
      "199": 2879,
      "than": 2880,
      "##ational": 2881,
      "##orn": 2882,
      "##ug": 2883,
      "##ict": 2884,
      "about": 2885,
      "three": 2886,
      "##hn": 2887,
      "again": 2888,
      "##vel": 2889,
      "produ": 2890,
      "##ank": 2891,
      "New": 2892,
      "between": 2893,
      "ret": 2894,
      "bu": 2895,
      "##ook": 2896,
      "film": 2897,
      "later": 2898,
      "##ever": 2899,
      "under": 2900,
      "through": 2901,
      "##orld": 2902,
      "##outh": 2903,
      "##fore": 2904,
      "##meric": 2905,
      "act": 2906,
      "Americ": 2907,
      "ac": 2908,
      "Com": 2909,
      "form": 2910,
      "##ular": 2911,
      "end": 2912,
      "num": 2913,
      "inter": 2914,
      "pos": 2915,
      "record": 2916,
      "##ision": 2917,
      "##ener": 2918,
      "acc": 2919,
      "spec": 2920,
      "while": 2921,
      "writ": 2922,
      "##ished": 2923,
      "ass": 2924,
      "where": 2925,
      "sub": 2926,
      "made": 2927,
      "##aid": 2928,
      "##ames": 2929,
      "##als": 2930,
      "releas": 2931,
      "##ating": 2932,
      "reg": 2933,
      "##ived": 2934,
      "pe": 2935,
      "season": 2936,
      "bas": 2937,
      "ep": 2938,
      "so": 2939,
      "##red": 2940,
      "gr": 2941,
      "##ral": 2942,
      "##ool": 2943,
      "ind": 2944,
      "such": 2945,
      "##ific": 2946,
      "day": 2947,
      "##ics": 2948,
      "follow": 2949,
      "##bum": 2950,
      "am": 2951,
      "000": 2952,
      "rev": 2953,
      "At": 2954,
      "me": 2955,
      "##ll": 2956,
      "second": 2957,
      "As": 2958,
      "mov": 2959,
      "Jo": 2960,
      "four": 2961,
      "Se": 2962,
      "call": 2963,
      "some": 2964,
      "mus": 2965,
      "lar": 2966,
      "##hes": 2967,
      "used": 2968,
      "##ury": 2969,
      "there": 2970,
      "##hen": 2971,
      "years": 2972,
      "This": 2973,
      "def": 2974,
      "##ode": 2975,
      "before": 2976,
      "publ": 2977,
      "##io": 2978,
      "##ike": 2979,
      "bl": 2980,
      "##ph": 2981,
      "##ton": 2982,
      "##eg": 2983,
      "##ron": 2984,
      "10": 2985,
      "no": 2986,
      "##eb": 2987,
      "epis": 2988,
      "##ane": 2989,
      "##ily": 2990,
      "##air": 2991,
      "##oun": 2992,
      "##ained": 2993,
      "album": 2994,
      "do": 2995,
      "##son": 2996,
      "##ected": 2997,
      "sy": 2998,
      "##ann": 2999,
      "##ole": 3000,
      "##other": 3001,
      "##ines": 3002,
      "##aj": 3003,
      "##ather": 3004,
      "##olog": 3005,
      "##ery": 3006,
      "##ek": 3007,
      "##ten": 3008,
      "pres": 3009,
      "Sp": 3010,
      "being": 3011,
      "##owever": 3012,
      "high": 3013,
      "mon": 3014,
      "sur": 3015,
      "loc": 3016,
      "then": 3017,
      "##ife": 3018,
      "An": 3019,
      "set": 3020,
      "qu": 3021,
      "##enn": 3022,
      "supp": 3023,
      "el": 3024,
      "17": 3025,
      "##ement": 3026,
      "Pr": 3027,
      "series": 3028,
      "found": 3029,
      "##ection": 3030,
      "rece": 3031,
      "met": 3032,
      "Car": 3033,
      "##ause": 3034,
      "Sh": 3035,
      "##ised": 3036,
      "##gr": 3037,
      "sever": 3038,
      "##ont": 3039,
      "became": 3040,
      "After": 3041,
      "charac": 3042,
      "number": 3043,
      "##its": 3044,
      "br": 3045,
      "well": 3046,
      "198": 3047,
      "show": 3048,
      "United": 3049,
      "##ise": 3050,
      "appear": 3051,
      "team": 3052,
      "inv": 3053,
      "12": 3054,
      "She": 3055,
      "Brit": 3056,
      "##ities": 3057,
      "##pen": 3058,
      "##ivers": 3059,
      "##ince": 3060,
      "194": 3061,
      "both": 3062,
      "add": 3063,
      "sing": 3064,
      "Br": 3065,
      "##ower": 3066,
      "Le": 3067,
      "against": 3068,
      "str": 3069,
      "##erm": 3070,
      "##ird": 3071,
      "##au": 3072,
      "##ars": 3073,
      "##any": 3074,
      "##ale": 3075,
      "co": 3076,
      "##anc": 3077,
      "##iver": 3078,
      "##ober": 3079,
      "##ve": 3080,
      "##ield": 3081,
      "long": 3082,
      "back": 3083,
      "John": 3084,
      "including": 3085,
      "##oot": 3086,
      "15": 3087,
      "Wh": 3088,
      "##ning": 3089,
      "main": 3090,
      "air": 3091,
      "##irect": 3092,
      "Eng": 3093,
      "##ier": 3094,
      "dr": 3095,
      "##led": 3096,
      "##ative": 3097,
      "sm": 3098,
      "episode": 3099,
      "##ures": 3100,
      "16": 3101,
      "known": 3102,
      "##ross": 3103,
      "did": 3104,
      "##iet": 3105,
      "many": 3106,
      "cap": 3107,
      "desc": 3108,
      "##velop": 3109,
      "##ful": 3110,
      "##az": 3111,
      "pol": 3112,
      "Sc": 3113,
      "perform": 3114,
      "##row": 3115,
      "em": 3116,
      "trans": 3117,
      "orig": 3118,
      "stud": 3119,
      "lead": 3120,
      "car": 3121,
      "could": 3122,
      "develop": 3123,
      "##elf": 3124,
      "##roup": 3125,
      "##uc": 3126,
      "##ert": 3127,
      "American": 3128,
      "##ually": 3129,
      "pop": 3130,
      "##ins": 3131,
      "##rap": 3132,
      "go": 3133,
      "est": 3134,
      "##fl": 3135,
      "##ized": 3136,
      "##der": 3137,
      "ship": 3138,
      "bro": 3139,
      "##overn": 3140,
      "min": 3141,
      "197": 3142,
      "##0s": 3143,
      "dif": 3144,
      "ob": 3145,
      "##though": 3146,
      "##ting": 3147,
      "par": 3148,
      "mill": 3149,
      "196": 3150,
      "##sp": 3151,
      "##emb": 3152,
      "##une": 3153,
      "Ind": 3154,
      "##ase": 3155,
      "several": 3156,
      "cre": 3157,
      "11": 3158,
      "##ern": 3159,
      "##hy": 3160,
      "near": 3161,
      "contin": 3162,
      "##uch": 3163,
      "##ets": 3164,
      "War": 3165,
      "##els": 3166,
      "##my": 3167,
      "called": 3168,
      "compl": 3169,
      "##iam": 3170,
      "said": 3171,
      "conc": 3172,
      "ext": 3173,
      "May": 3174,
      "any": 3175,
      "##ash": 3176,
      "##ople": 3177,
      "exp": 3178,
      "bel": 3179,
      "war": 3180,
      "began": 3181,
      "##ntil": 3182,
      "may": 3183,
      "##oad": 3184,
      "##imes": 3185,
      "inst": 3186,
      "##aking": 3187,
      "dist": 3188,
      "return": 3189,
      "##ism": 3190,
      "sign": 3191,
      "##eng": 3192,
      "run": 3193,
      "##ued": 3194,
      "design": 3195,
      "##und": 3196,
      "you": 3197,
      "##ains": 3198,
      "##ull": 3199,
      "##ident": 3200,
      "eff": 3201,
      "early": 3202,
      "crit": 3203,
      "disc": 3204,
      "Bl": 3205,
      "##chool": 3206,
      "gener": 3207,
      "direct": 3208,
      "##ah": 3209,
      "For": 3210,
      "use": 3211,
      "prov": 3212,
      "##ty": 3213,
      "##ouse": 3214,
      "until": 3215,
      "Cl": 3216,
      "hist": 3217,
      "##ired": 3218,
      "##ession": 3219,
      "##ided": 3220,
      "##up": 3221,
      "these": 3222,
      "Is": 3223,
      "mat": 3224,
      "##ange": 3225,
      "describ": 3226,
      "sl": 3227,
      "col": 3228,
      "feat": 3229,
      "##erson": 3230,
      "century": 3231,
      "released": 3232,
      "Aust": 3233,
      "World": 3234,
      "fin": 3235,
      "const": 3236,
      "resp": 3237,
      "own": 3238,
      "along": 3239,
      "##xt": 3240,
      "art": 3241,
      "##ove": 3242,
      "music": 3243,
      "##ajor": 3244,
      "offic": 3245,
      "##yp": 3246,
      "##ially": 3247,
      "open": 3248,
      "##ccess": 3249,
      "##ments": 3250,
      "sim": 3251,
      "same": 3252,
      "##osed": 3253,
      "pass": 3254,
      "fam": 3255,
      "##ium": 3256,
      "##erv": 3257,
      "occ": 3258,
      "land": 3259,
      "British": 3260,
      "##ution": 3261,
      "down": 3262,
      "##ently": 3263,
      "though": 3264,
      "##amed": 3265,
      "##ured": 3266,
      "##ists": 3267,
      "Con": 3268,
      "195": 3269,
      "group": 3270,
      "prev": 3271,
      "mil": 3272,
      "##ley": 3273,
      "people": 3274,
      "Tr": 3275,
      "##ruct": 3276,
      "Pl": 3277,
      "Ad": 3278,
      "##ible": 3279,
      "13": 3280,
      "city": 3281,
      "build": 3282,
      "##ina": 3283,
      "##oss": 3284,
      "Sept": 3285,
      "##cept": 3286,
      "because": 3287,
      "million": 3288,
      "km": 3289,
      "like": 3290,
      "poin": 3291,
      "##ink": 3292,
      "##ax": 3293,
      "##por": 3294,
      "September": 3295,
      "Aug": 3296,
      "##res": 3297,
      "They": 3298,
      "193": 3299,
      "character": 3300,
      "##ues": 3301,
      "August": 3302,
      "each": 3303,
      "oper": 3304,
      "States": 3305,
      "small": 3306,
      "Ju": 3307,
      "191": 3308,
      "mod": 3309,
      "US": 3310,
      "imp": 3311,
      "14": 3312,
      "Chr": 3313,
      "##aining": 3314,
      "win": 3315,
      "##urch": 3316,
      "##ended": 3317,
      "around": 3318,
      "All": 3319,
      "##stem": 3320,
      "dep": 3321,
      "##ects": 3322,
      "six": 3323,
      "##sc": 3324,
      "##ven": 3325,
      "area": 3326,
      "Col": 3327,
      "ever": 3328,
      "govern": 3329,
      "success": 3330,
      "start": 3331,
      "count": 3332,
      "following": 3333,
      "complet": 3334,
      "##uth": 3335,
      "class": 3336,
      "Ger": 3337,
      "Gr": 3338,
      "Pro": 3339,
      "consid": 3340,
      "took": 3341,
      "adv": 3342,
      "received": 3343,
      "five": 3344,
      "##aced": 3345,
      "vers": 3346,
      "po": 3347,
      "id": 3348,
      "##wards": 3349,
      "var": 3350,
      "##ales": 3351,
      "gu": 3352,
      "Mc": 3353,
      "arr": 3354,
      "north": 3355,
      "serv": 3356,
      "##gg": 3357,
      "June": 3358,
      "red": 3359,
      "prom": 3360,
      "Nov": 3361,
      "##aving": 3362,
      "partic": 3363,
      "##ject": 3364,
      "batt": 3365,
      "life": 3366,
      "head": 3367,
      "week": 3368,
      "will": 3369,
      "However": 3370,
      "##ner": 3371,
      "##itt": 3372,
      "Oct": 3373,
      "##ilt": 3374,
      "##ives": 3375,
      "##eal": 3376,
      "##iving": 3377,
      "state": 3378,
      "##ex": 3379,
      "##ording": 3380,
      "attack": 3381,
      "final": 3382,
      "Jan": 3383,
      "##ble": 3384,
      "ann": 3385,
      "October": 3386,
      "public": 3387,
      "##ke": 3388,
      "support": 3389,
      "##ural": 3390,
      "Can": 3391,
      "ent": 3392,
      "Comm": 3393,
      "##ility": 3394,
      "##ene": 3395,
      "##ague": 3396,
      "Austral": 3397,
      "##med": 3398,
      "##ox": 3399,
      "##ored": 3400,
      "large": 3401,
      "##ission": 3402,
      "major": 3403,
      "camp": 3404,
      "##yl": 3405,
      "coll": 3406,
      "##uary": 3407,
      "Apr": 3408,
      "Dec": 3409,
      "##omet": 3410,
      "##ats": 3411,
      "contro": 3412,
      "April": 3413,
      "July": 3414,
      "mar": 3415,
      "##ient": 3416,
      "old": 3417,
      "##ute": 3418,
      "Be": 3419,
      "care": 3420,
      "since": 3421,
      "##ately": 3422,
      "##idge": 3423,
      "##aim": 3424,
      "hel": 3425,
      "##raft": 3426,
      "South": 3427,
      "Gu": 3428,
      "North": 3429,
      "med": 3430,
      "rest": 3431,
      "##ined": 3432,
      "book": 3433,
      "allow": 3434,
      "cr": 3435,
      "German": 3436,
      "November": 3437,
      "line": 3438,
      "bre": 3439,
      "left": 3440,
      "just": 3441,
      "differ": 3442,
      "Christ": 3443,
      "single": 3444,
      "tit": 3445,
      "##ides": 3446,
      "played": 3447,
      "Bro": 3448,
      "II": 3449,
      "##oman": 3450,
      "##gin": 3451,
      "det": 3452,
      "Fl": 3453,
      "##inc": 3454,
      "world": 3455,
      "last": 3456,
      "##lish": 3457,
      "system": 3458,
      "incre": 3459,
      "During": 3460,
      "if": 3461,
      "##ants": 3462,
      "##ively": 3463,
      "25": 3464,
      "tri": 3465,
      "what": 3466,
      "##oard": 3467,
      "York": 3468,
      "Her": 3469,
      "##rote": 3470,
      "##par": 3471,
      "##ified": 3472,
      "Eu": 3473,
      "##ption": 3474,
      "due": 3475,
      "##ians": 3476,
      "described": 3477,
      "Ph": 3478,
      "30": 3479,
      "When": 3480,
      "##arr": 3481,
      "wrote": 3482,
      "species": 3483,
      "##ean": 3484,
      "school": 3485,
      "##ison": 3486,
      "##ograp": 3487,
      "##iversity": 3488,
      "January": 3489,
      "##side": 3490,
      "##ret": 3491,
      "another": 3492,
      "##ital": 3493,
      "March": 3494,
      "result": 3495,
      "death": 3496,
      "report": 3497,
      "vis": 3498,
      "King": 3499,
      "review": 3500,
      "name": 3501,
      "expl": 3502,
      "short": 3503,
      "##ention": 3504,
      "much": 3505,
      "##ped": 3506,
      "##ically": 3507,
      "##ilar": 3508,
      "prot": 3509,
      "place": 3510,
      "based": 3511,
      "south": 3512,
      "home": 3513,
      "poss": 3514,
      "By": 3515,
      "##ages": 3516,
      "larg": 3517,
      "now": 3518,
      "##ony": 3519,
      "December": 3520,
      "dam": 3521,
      "##ody": 3522,
      "##cl": 3523,
      "##ivision": 3524,
      "track": 3525,
      "##apan": 3526,
      "ph": 3527,
      "won": 3528,
      "##rew": 3529,
      "belie": 3530,
      "Par": 3531,
      "##avy": 3532,
      "##ays": 3533,
      "month": 3534,
      "##hest": 3535,
      "appro": 3536,
      "Japan": 3537,
      "Ge": 3538,
      "named": 3539,
      "##ience": 3540,
      "##ham": 3541,
      "child": 3542,
      "##ideo": 3543,
      "##aged": 3544,
      "##ead": 3545,
      "##ren": 3546,
      "family": 3547,
      "##ves": 3548,
      "##hel": 3549,
      "requ": 3550,
      "##get": 3551,
      "list": 3552,
      "sk": 3553,
      "##ract": 3554,
      "third": 3555,
      "story": 3556,
      "included": 3557,
      "progr": 3558,
      "games": 3559,
      "event": 3560,
      "power": 3561,
      "gun": 3562,
      "Europ": 3563,
      "##ched": 3564,
      "within": 3565,
      "##uss": 3566,
      "##by": 3567,
      "even": 3568,
      "person": 3569,
      "view": 3570,
      "built": 3571,
      "##omin": 3572,
      "And": 3573,
      "hand": 3574,
      "His": 3575,
      "term": 3576,
      "attem": 3577,
      "very": 3578,
      "late": 3579,
      "port": 3580,
      "government": 3581,
      "El": 3582,
      "original": 3583,
      "##ress": 3584,
      "##ances": 3585,
      "Or": 3586,
      "top": 3587,
      "There": 3588,
      "192": 3589,
      "##ball": 3590,
      "##ature": 3591,
      "kill": 3592,
      "turn": 3593,
      "Mich": 3594,
      "make": 3595,
      "##ruction": 3596,
      "##akes": 3597,
      "mark": 3598,
      "##ness": 3599,
      "##alk": 3600,
      "ele": 3601,
      "##ef": 3602,
      "##urther": 3603,
      "##ulation": 3604,
      "command": 3605,
      "##ology": 3606,
      "estab": 3607,
      "##ech": 3608,
      "##ested": 3609,
      "organ": 3610,
      "##elt": 3611,
      "##iod": 3612,
      "those": 3613,
      "leg": 3614,
      "##itions": 3615,
      "rep": 3616,
      "100": 3617,
      "star": 3618,
      "dem": 3619,
      "hum": 3620,
      "men": 3621,
      "led": 3622,
      "still": 3623,
      "real": 3624,
      "Will": 3625,
      "previous": 3626,
      "##alf": 3627,
      "best": 3628,
      "iss": 3629,
      "National": 3630,
      "prop": 3631,
      "##ior": 3632,
      "##iven": 3633,
      "cour": 3634,
      "##mp": 3635,
      "##ung": 3636,
      "Mus": 3637,
      "ed": 3638,
      "role": 3639,
      "##ences": 3640,
      "conv": 3641,
      "##aff": 3642,
      "del": 3643,
      "Canad": 3644,
      "##ached": 3645,
      "##ench": 3646,
      "Ed": 3647,
      "Min": 3648,
      "##ple": 3649,
      "##ories": 3650,
      "exper": 3651,
      "my": 3652,
      "##ms": 3653,
      "2010": 3654,
      "##ling": 3655,
      "##reen": 3656,
      "repl": 3657,
      "##oci": 3658,
      "##ister": 3659,
      "##que": 3660,
      "One": 3661,
      "eng": 3662,
      "although": 3663,
      "memb": 3664,
      "##itary": 3665,
      "##urr": 3666,
      "period": 3667,
      "next": 3668,
      "##aur": 3669,
      "mag": 3670,
      "##ented": 3671,
      "sold": 3672,
      "deb": 3673,
      "great": 3674,
      "typ": 3675,
      "opp": 3676,
      "##ott": 3677,
      "##gy": 3678,
      "##ler": 3679,
      "##ival": 3680,
      "addition": 3681,
      "##dom": 3682,
      "conf": 3683,
      "2009": 3684,
      "##ropical": 3685,
      "##aken": 3686,
      "career": 3687,
      "ref": 3688,
      "dest": 3689,
      "former": 3690,
      "caus": 3691,
      "storm": 3692,
      "We": 3693,
      "similar": 3694,
      "band": 3695,
      "City": 3696,
      "way": 3697,
      "##sh": 3698,
      "##eder": 3699,
      "##enc": 3700,
      "21": 3701,
      "##ai": 3702,
      "often": 3703,
      "Char": 3704,
      "player": 3705,
      "##atic": 3706,
      "##idd": 3707,
      "video": 3708,
      "repr": 3709,
      "West": 3710,
      "##read": 3711,
      "town": 3712,
      "##ged": 3713,
      "Am": 3714,
      "claim": 3715,
      "init": 3716,
      "Rec": 3717,
      "##tain": 3718,
      "came": 3719,
      "auth": 3720,
      "##ried": 3721,
      "water": 3722,
      "Des": 3723,
      "##ense": 3724,
      "2008": 3725,
      "##oon": 3726,
      "##amb": 3727,
      "local": 3728,
      "version": 3729,
      "few": 3730,
      "held": 3731,
      "moved": 3732,
      "##ared": 3733,
      "spe": 3734,
      "##oyal": 3735,
      "##ebru": 3736,
      "tel": 3737,
      "##uted": 3738,
      "tw": 3739,
      "##ops": 3740,
      "however": 3741,
      "##ae": 3742,
      "2007": 3743,
      "history": 3744,
      "different": 3745,
      "Batt": 3746,
      "days": 3747,
      "##ps": 3748,
      "stand": 3749,
      "Febru": 3750,
      "Man": 3751,
      "February": 3752,
      "considered": 3753,
      "##press": 3754,
      "every": 3755,
      "##urs": 3756,
      "sent": 3757,
      "##line": 3758,
      "infl": 3759,
      "Count": 3760,
      "River": 3761,
      "##ased": 3762,
      "among": 3763,
      "gen": 3764,
      "##eter": 3765,
      "##ests": 3766,
      "##reet": 3767,
      "trad": 3768,
      "##augh": 3769,
      "ant": 3770,
      "##ittle": 3771,
      "order": 3772,
      "##aster": 3773,
      "##estern": 3774,
      "##iety": 3775,
      "without": 3776,
      "Air": 3777,
      "common": 3778,
      "No": 3779,
      "French": 3780,
      "##hem": 3781,
      "continued": 3782,
      "release": 3783,
      "##ards": 3784,
      "join": 3785,
      "##ese": 3786,
      "##aly": 3787,
      "beh": 3788,
      "##ize": 3789,
      "##ampions": 3790,
      "England": 3791,
      "24": 3792,
      "written": 3793,
      "With": 3794,
      "##rodu": 3795,
      "members": 3796,
      "av": 3797,
      "fre": 3798,
      "##ices": 3799,
      "take": 3800,
      "foot": 3801,
      "##app": 3802,
      "Acc": 3803,
      "further": 3804,
      "##pite": 3805,
      "published": 3806,
      "##ator": 3807,
      "import": 3808,
      "polit": 3809,
      "##ternational": 3810,
      "side": 3811,
      "sugg": 3812,
      "##ours": 3813,
      "become": 3814,
      "##arm": 3815,
      "Ear": 3816,
      "University": 3817,
      "find": 3818,
      "##omb": 3819,
      "post": 3820,
      "vict": 3821,
      "produc": 3822,
      "##int": 3823,
      "field": 3824,
      "##aul": 3825,
      "tot": 3826,
      "prof": 3827,
      "Bar": 3828,
      "Although": 3829,
      "half": 3830,
      "23": 3831,
      "attempt": 3832,
      "cover": 3833,
      "tem": 3834,
      "##yle": 3835,
      "##evision": 3836,
      "Ab": 3837,
      "recorded": 3838,
      "Gener": 3839,
      "invol": 3840,
      "You": 3841,
      "##ipp": 3842,
      "##ney": 3843,
      "cor": 3844,
      "##orts": 3845,
      "22": 3846,
      "gave": 3847,
      "Cal": 3848,
      "Park": 3849,
      "State": 3850,
      "level": 3851,
      "equ": 3852,
      "wind": 3853,
      "##ising": 3854,
      "returned": 3855,
      "fun": 3856,
      "##raw": 3857,
      "##ne": 3858,
      "##roy": 3859,
      "##ights": 3860,
      "particular": 3861,
      "point": 3862,
      "Dr": 3863,
      "island": 3864,
      "enter": 3865,
      "strong": 3866,
      "English": 3867,
      "having": 3868,
      "2011": 3869,
      "sol": 3870,
      "##atter": 3871,
      "##iter": 3872,
      "##oute": 3873,
      "William": 3874,
      "190": 3875,
      "Geor": 3876,
      "##urric": 3877,
      "##iend": 3878,
      "never": 3879,
      "##af": 3880,
      "2012": 3881,
      "Ass": 3882,
      "26": 3883,
      "repres": 3884,
      "##isc": 3885,
      "##atch": 3886,
      "less": 3887,
      "young": 3888,
      "elect": 3889,
      "low": 3890,
      "##echn": 3891,
      "chang": 3892,
      "##ches": 3893,
      "##ett": 3894,
      "##aying": 3895,
      "refer": 3896,
      "Re": 3897,
      "##ones": 3898,
      "father": 3899,
      "ships": 3900,
      "##astern": 3901,
      "read": 3902,
      "Af": 3903,
      "##ape": 3904,
      "##lear": 3905,
      "building": 3906,
      "friend": 3907,
      "eight": 3908,
      "nov": 3909,
      "##ck": 3910,
      "Mon": 3911,
      "program": 3912,
      "position": 3913,
      "influ": 3914,
      "include": 3915,
      "produced": 3916,
      "2006": 3917,
      "According": 3918,
      "company": 3919,
      "Dav": 3920,
      "##yn": 3921,
      "commun": 3922,
      "Comp": 3923,
      "reported": 3924,
      "While": 3925,
      "road": 3926,
      "soc": 3927,
      "##self": 3928,
      "##ald": 3929,
      "##ailed": 3930,
      "ter": 3931,
      "compet": 3932,
      "##lex": 3933,
      "##anted": 3934,
      "how": 3935,
      "##ief": 3936,
      "production": 3937,
      "Su": 3938,
      "##irc": 3939,
      "title": 3940,
      "club": 3941,
      "Division": 3942,
      "author": 3943,
      "Cent": 3944,
      "given": 3945,
      "##itive": 3946,
      "sound": 3947,
      "##ably": 3948,
      "50": 3949,
      "songs": 3950,
      "##ampionship": 3951,
      "28": 3952,
      "Ex": 3953,
      "house": 3954,
      "control": 3955,
      "total": 3956,
      "east": 3957,
      "##omen": 3958,
      "sit": 3959,
      "##ned": 3960,
      "##ama": 3961,
      "##let": 3962,
      "##outher": 3963,
      "General": 3964,
      "##ying": 3965,
      "super": 3966,
      "surv": 3967,
      "##rem": 3968,
      "law": 3969,
      "right": 3970,
      "##earch": 3971,
      "Cor": 3972,
      "somet": 3973,
      "##aised": 3974,
      "stated": 3975,
      "west": 3976,
      "##cess": 3977,
      "##sequ": 3978,
      "Pol": 3979,
      "stat": 3980,
      "ord": 3981,
      "##ength": 3982,
      "trav": 3983,
      "##ration": 3984,
      "lim": 3985,
      "origin": 3986,
      "##outhern": 3987,
      "##oom": 3988,
      "##aign": 3989,
      "la": 3990,
      "defe": 3991,
      "need": 3992,
      "##craft": 3993,
      "aff": 3994,
      "comb": 3995,
      "should": 3996,
      "critic": 3997,
      "inf": 3998,
      "adm": 3999,
      "military": 4000,
      "good": 4001,
      "capt": 4002,
      "nort": 4003,
      "fact": 4004,
      "across": 4005,
      "High": 4006,
      "Sm": 4007,
      "##used": 4008,
      "##ford": 4009,
      "Lond": 4010,
      "League": 4011,
      "##ament": 4012,
      "noted": 4013,
      "match": 4014,
      "27": 4015,
      "##ering": 4016,
      "London": 4017,
      "obs": 4018,
      "hig": 4019,
      "using": 4020,
      "arch": 4021,
      "##ges": 4022,
      "##hing": 4023,
      "These": 4024,
      "##osp": 4025,
      "##ensive": 4026,
      "went": 4027,
      "histor": 4028,
      "times": 4029,
      "press": 4030,
      "making": 4031,
      "##uck": 4032,
      "Afric": 4033,
      "country": 4034,
      "Sw": 4035,
      "announ": 4036,
      "lost": 4037,
      "children": 4038,
      "##ither": 4039,
      "black": 4040,
      "##ots": 4041,
      "fire": 4042,
      "##ington": 4043,
      "##onn": 4044,
      "De": 4045,
      "##aces": 4046,
      "##otion": 4047,
      "introdu": 4048,
      "ten": 4049,
      "Co": 4050,
      "ground": 4051,
      "##ublic": 4052,
      "popular": 4053,
      "Jack": 4054,
      "##iness": 4055,
      "2013": 4056,
      "present": 4057,
      "himself": 4058,
      "Army": 4059,
      "189": 4060,
      "##idence": 4061,
      "##aint": 4062,
      "##iction": 4063,
      "America": 4064,
      "##fic": 4065,
      "cast": 4066,
      "television": 4067,
      "##field": 4068,
      "developed": 4069,
      "bus": 4070,
      "pat": 4071,
      "destroy": 4072,
      "died": 4073,
      "felt": 4074,
      "light": 4075,
      "development": 4076,
      "##ords": 4077,
      "rad": 4078,
      "##lished": 4079,
      "##hern": 4080,
      "##ination": 4081,
      "signific": 4082,
      "##iment": 4083,
      "Sec": 4084,
      "##urricane": 4085,
      "ke": 4086,
      "##vers": 4087,
      "##itted": 4088,
      "plan": 4089,
      "site": 4090,
      "white": 4091,
      "effect": 4092,
      "away": 4093,
      "fem": 4094,
      "##bs": 4095,
      "Rober": 4096,
      "##work": 4097,
      "son": 4098,
      "div": 4099,
      "##ogn": 4100,
      "##ask": 4101,
      "##ploy": 4102,
      "ft": 4103,
      "40": 4104,
      "anim": 4105,
      "established": 4106,
      "gl": 4107,
      "##ael": 4108,
      "throughout": 4109,
      "age": 4110,
      "body": 4111,
      "Port": 4112,
      "##alt": 4113,
      "service": 4114,
      "let": 4115,
      "seen": 4116,
      "construction": 4117,
      "award": 4118,
      "national": 4119,
      "suff": 4120,
      "sw": 4121,
      "##con": 4122,
      "feet": 4123,
      "campaign": 4124,
      "techn": 4125,
      "ins": 4126,
      "manag": 4127,
      "get": 4128,
      "##ades": 4129,
      "sum": 4130,
      "Mo": 4131,
      "mm": 4132,
      "##orse": 4133,
      "##ries": 4134,
      "##ization": 4135,
      "rank": 4136,
      "struct": 4137,
      "Med": 4138,
      "Per": 4139,
      "##isted": 4140,
      "##abor": 4141,
      "County": 4142,
      "But": 4143,
      "cult": 4144,
      "##ways": 4145,
      "writing": 4146,
      "started": 4147,
      "Australia": 4148,
      "seven": 4149,
      "population": 4150,
      "James": 4151,
      "mid": 4152,
      "squ": 4153,
      "style": 4154,
      "##ream": 4155,
      "Har": 4156,
      "##ana": 4157,
      "##itar": 4158,
      "remained": 4159,
      "enc": 4160,
      "val": 4161,
      "29": 4162,
      "Miss": 4163,
      "##ivil": 4164,
      "months": 4165,
      "important": 4166,
      "cross": 4167,
      "reached": 4168,
      "full": 4169,
      "##reg": 4170,
      "Black": 4171,
      "official": 4172,
      "little": 4173,
      "region": 4174,
      "areas": 4175,
      "too": 4176,
      "see": 4177,
      "successful": 4178,
      "Reg": 4179,
      "cond": 4180,
      "##ls": 4181,
      "relations": 4182,
      "miles": 4183,
      "Sim": 4184,
      "begin": 4185,
      "look": 4186,
      "decl": 4187,
      "characters": 4188,
      "##play": 4189,
      "various": 4190,
      "En": 4191,
      "##iber": 4192,
      "McC": 4193,
      "entire": 4194,
      "##itch": 4195,
      "Japanese": 4196,
      "##iting": 4197,
      "##ille": 4198,
      "thought": 4199,
      "Phil": 4200,
      "Ser": 4201,
      "cy": 4202,
      "station": 4203,
      "Island": 4204,
      "circ": 4205,
      "sel": 4206,
      "##oo": 4207,
      "2005": 4208,
      "##less": 4209,
      "does": 4210,
      "performance": 4211,
      "Du": 4212,
      "Rep": 4213,
      "non": 4214,
      "tour": 4215,
      "##lant": 4216,
      "##acy": 4217,
      "##ope": 4218,
      "broad": 4219,
      "significant": 4220,
      "##ements": 4221,
      "activ": 4222,
      "able": 4223,
      "aver": 4224,
      "##iers": 4225,
      "forces": 4226,
      "process": 4227,
      "novel": 4228,
      "##ological": 4229,
      "tropical": 4230,
      "##ground": 4231,
      "meet": 4232,
      "##olution": 4233,
      "##leet": 4234,
      "##alth": 4235,
      "##reed": 4236,
      "political": 4237,
      "##most": 4238,
      "##imately": 4239,
      "performed": 4240,
      "##ster": 4241,
      "created": 4242,
      "Ang": 4243,
      "Gl": 4244,
      "##iec": 4245,
      "ident": 4246,
      "Mor": 4247,
      "arm": 4248,
      "aircraft": 4249,
      "lik": 4250,
      "##eth": 4251,
      "##alls": 4252,
      "##rick": 4253,
      "aud": 4254,
      "hit": 4255,
      "##oice": 4256,
      "Sy": 4257,
      "cert": 4258,
      "##ells": 4259,
      "bar": 4260,
      "fav": 4261,
      "Act": 4262,
      "put": 4263,
      "##emy": 4264,
      "modern": 4265,
      "night": 4266,
      "##enth": 4267,
      "prim": 4268,
      "Christian": 4269,
      "East": 4270,
      "##ument": 4271,
      "##ids": 4272,
      "Street": 4273,
      "grow": 4274,
      "##utes": 4275,
      "##aves": 4276,
      "discover": 4277,
      "Cro": 4278,
      "Hist": 4279,
      "2004": 4280,
      "188": 4281,
      "Pres": 4282,
      "##ample": 4283,
      "##ency": 4284,
      "served": 4285,
      "ask": 4286,
      "earl": 4287,
      "caused": 4288,
      "pri": 4289,
      "##ee": 4290,
      "special": 4291,
      "formed": 4292,
      "completed": 4293,
      "vol": 4294,
      "force": 4295,
      "186": 4296,
      "becom": 4297,
      "located": 4298,
      "born": 4299,
      "others": 4300,
      "##ought": 4301,
      "Road": 4302,
      "followed": 4303,
      "cop": 4304,
      "help": 4305,
      "taken": 4306,
      "##hys": 4307,
      "sett": 4308,
      "loss": 4309,
      "To": 4310,
      "announced": 4311,
      "range": 4312,
      "toget": 4313,
      "##icated": 4314,
      "stri": 4315,
      "decided": 4316,
      "general": 4317,
      "together": 4318,
      "Royal": 4319,
      "fac": 4320,
      "San": 4321,
      "mix": 4322,
      "##unk": 4323,
      "##duc": 4324,
      "killed": 4325,
      "human": 4326,
      "Rich": 4327,
      "conn": 4328,
      "Ne": 4329,
      "##iol": 4330,
      "arg": 4331,
      "Mad": 4332,
      "rock": 4333,
      "Red": 4334,
      "bo": 4335,
      "##epend": 4336,
      "instead": 4337,
      "chart": 4338,
      "Australian": 4339,
      "Bill": 4340,
      "##ula": 4341,
      "31": 4342,
      "pred": 4343,
      "##reek": 4344,
      "##rought": 4345,
      "Atlant": 4346,
      "appeared": 4347,
      "cost": 4348,
      "round": 4349,
      "##ivid": 4350,
      "once": 4351,
      "impro": 4352,
      "Ir": 4353,
      "hon": 4354,
      "##board": 4355,
      "##ara": 4356,
      "players": 4357,
      "##omm": 4358,
      "Roman": 4359,
      "##enced": 4360,
      "added": 4361,
      "##ecut": 4362,
      "##lege": 4363,
      "##elling": 4364,
      "guns": 4365,
      "##azine": 4366,
      "tradition": 4367,
      "##day": 4368,
      "vill": 4369,
      "crew": 4370,
      "ste": 4371,
      "##ani": 4372,
      "##rict": 4373,
      "Europe": 4374,
      "member": 4375,
      "185": 4376,
      "peak": 4377,
      "George": 4378,
      "coun": 4379,
      "##hic": 4380,
      "comment": 4381,
      "recogn": 4382,
      "##pression": 4383,
      "church": 4384,
      "opened": 4385,
      "##ficult": 4386,
      "Mil": 4387,
      "hold": 4388,
      "##here": 4389,
      "##ows": 4390,
      "##ica": 4391,
      "occur": 4392,
      "voc": 4393,
      "proble": 4394,
      "Thom": 4395,
      "women": 4396,
      "insp": 4397,
      "upon": 4398,
      "Song": 4399,
      "live": 4400,
      "##ceed": 4401,
      "Some": 4402,
      "mother": 4403,
      "difficult": 4404,
      "behind": 4405,
      "far": 4406,
      "front": 4407,
      "appoin": 4408,
      "events": 4409,
      "ball": 4410,
      "##umb": 4411,
      "battle": 4412,
      "creat": 4413,
      "##alion": 4414,
      "##aval": 4415,
      "least": 4416,
      "Kingdom": 4417,
      "Canada": 4418,
      "tre": 4419,
      "##aps": 4420,
      "Rev": 4421,
      "##odes": 4422,
      "2003": 4423,
      "Indian": 4424,
      "cut": 4425,
      "##ential": 4426,
      "generally": 4427,
      "race": 4428,
      "##aper": 4429,
      "project": 4430,
      "Cr": 4431,
      "mount": 4432,
      "My": 4433,
      "Brown": 4434,
      "cou": 4435,
      "separ": 4436,
      "##for": 4437,
      "##asing": 4438,
      "flag": 4439,
      "interv": 4440,
      "critics": 4441,
      "features": 4442,
      "relationship": 4443,
      "coast": 4444,
      "##oted": 4445,
      "miss": 4446,
      "saw": 4447,
      "eventually": 4448,
      "##igan": 4449,
      "reb": 4450,
      "Other": 4451,
      "clos": 4452,
      "Mag": 4453,
      "wife": 4454,
      "##ino": 4455,
      "playing": 4456,
      "##cent": 4457,
      "##uk": 4458,
      "example": 4459,
      "action": 4460,
      "mass": 4461,
      "estim": 4462,
      "##ush": 4463,
      "exc": 4464,
      "Bo": 4465,
      "Old": 4466,
      "##ending": 4467,
      "##aching": 4468,
      "provided": 4469,
      "host": 4470,
      "##uel": 4471,
      "##olf": 4472,
      "##anish": 4473,
      "allowed": 4474,
      "curr": 4475,
      "mult": 4476,
      "##medi": 4477,
      "Music": 4478,
      "fif": 4479,
      "##oor": 4480,
      "##ators": 4481,
      "worked": 4482,
      "associ": 4483,
      "Em": 4484,
      "rather": 4485,
      "##ully": 4486,
      "mater": 4487,
      "ve": 4488,
      "##igned": 4489,
      "2014": 4490,
      "believed": 4491,
      "route": 4492,
      "##ule": 4493,
      "##chie": 4494,
      "Michael": 4495,
      "##ulf": 4496,
      "redu": 4497,
      "Church": 4498,
      "individ": 4499,
      "Que": 4500,
      "either": 4501,
      "##ico": 4502,
      "##rated": 4503,
      "##lement": 4504,
      "##ems": 4505,
      "originally": 4506,
      "##off": 4507,
      "##oul": 4508,
      "Follow": 4509,
      "Ev": 4510,
      "dou": 4511,
      "fig": 4512,
      "##ena": 4513,
      "weeks": 4514,
      "Vir": 4515,
      "brought": 4516,
      "mer": 4517,
      "##cast": 4518,
      "leading": 4519,
      "points": 4520,
      "##igade": 4521,
      "##br": 4522,
      "close": 4523,
      "bird": 4524,
      "inj": 4525,
      "ly": 4526,
      "lack": 4527,
      "almost": 4528,
      "##istic": 4529,
      "sequ": 4530,
      "know": 4531,
      "House": 4532,
      "wid": 4533,
      "##ases": 4534,
      "##ourn": 4535,
      "quest": 4536,
      "Mount": 4537,
      "foc": 4538,
      "accept": 4539,
      "##men": 4540,
      "##iding": 4541,
      "heavy": 4542,
      "placed": 4543,
      "tro": 4544,
      "##uit": 4545,
      "Hen": 4546,
      "##cil": 4547,
      "##cher": 4548,
      "David": 4549,
      "Following": 4550,
      "Game": 4551,
      "##oring": 4552,
      "laun": 4553,
      "qual": 4554,
      "##go": 4555,
      "inform": 4556,
      "##ift": 4557,
      "##ened": 4558,
      "##ills": 4559,
      "500": 4560,
      "sour": 4561,
      "##iddle": 4562,
      "Squ": 4563,
      "treat": 4564,
      "##artment": 4565,
      "School": 4566,
      "Val": 4567,
      "##ata": 4568,
      "2015": 4569,
      "##spec": 4570,
      "Robert": 4571,
      "case": 4572,
      "##ript": 4573,
      "Paul": 4574,
      "##anch": 4575,
      "subsequ": 4576,
      "president": 4577,
      "ill": 4578,
      "##iation": 4579,
      "respect": 4580,
      "esc": 4581,
      "Sch": 4582,
      "Two": 4583,
      "southern": 4584,
      "prob": 4585,
      "indust": 4586,
      "relig": 4587,
      "Flor": 4588,
      "damage": 4589,
      "individual": 4590,
      "##wood": 4591,
      "scored": 4592,
      "featured": 4593,
      "##asion": 4594,
      "neg": 4595,
      "First": 4596,
      "##ique": 4597,
      "##angu": 4598,
      "works": 4599,
      "fourth": 4600,
      "victory": 4601,
      "ey": 4602,
      "commer": 4603,
      "187": 4604,
      "working": 4605,
      "brother": 4606,
      "finished": 4607,
      "represent": 4608,
      "Pal": 4609,
      "##stit": 4610,
      "opening": 4611,
      "football": 4612,
      "##ger": 4613,
      "##ago": 4614,
      "International": 4615,
      "pract": 4616,
      "regular": 4617,
      "business": 4618,
      "stru": 4619,
      "dev": 4620,
      "##ius": 4621,
      "##ios": 4622,
      "##den": 4623,
      "##atural": 4624,
      "appearance": 4625,
      "##ography": 4626,
      "Cap": 4627,
      "Qu": 4628,
      "##rey": 4629,
      "designed": 4630,
      "Ham": 4631,
      "Mac": 4632,
      "##BC": 4633,
      "Ant": 4634,
      "Hol": 4635,
      "Mex": 4636,
      "wanted": 4637,
      "king": 4638,
      "particularly": 4639,
      "length": 4640,
      "##omp": 4641,
      "##omy": 4642,
      "##ote": 4643,
      "sex": 4644,
      "hy": 4645,
      "##now": 4646,
      "exist": 4647,
      "Championship": 4648,
      "##ference": 4649,
      "regard": 4650,
      "quick": 4651,
      "2001": 4652,
      "fight": 4653,
      "##bert": 4654,
      "interest": 4655,
      "Company": 4656,
      "fell": 4657,
      "fund": 4658,
      "nomin": 4659,
      "##erous": 4660,
      "stage": 4661,
      "##anding": 4662,
      "contract": 4663,
      "Mary": 4664,
      "From": 4665,
      "White": 4666,
      "engine": 4667,
      "##enes": 4668,
      "unc": 4669,
      "Sing": 4670,
      "must": 4671,
      "Love": 4672,
      "che": 4673,
      "##head": 4674,
      "average": 4675,
      "Best": 4676,
      "##pts": 4677,
      "2002": 4678,
      "Ag": 4679,
      "Rock": 4680,
      "##ea": 4681,
      "European": 4682,
      "Hall": 4683,
      "bomb": 4684,
      "saying": 4685,
      "soon": 4686,
      "##ving": 4687,
      "Grand": 4688,
      "Despite": 4689,
      "travel": 4690,
      "material": 4691,
      "##duct": 4692,
      "scene": 4693,
      "France": 4694,
      "nec": 4695,
      "proper": 4696,
      "possible": 4697,
      "invest": 4698,
      "involved": 4699,
      "eastern": 4700,
      "##cial": 4701,
      "##sel": 4702,
      "##usion": 4703,
      "Spanish": 4704,
      "territ": 4705,
      "Ac": 4706,
      "free": 4707,
      "towards": 4708,
      "Play": 4709,
      "Part": 4710,
      "##erved": 4711,
      "##adron": 4712,
      "##aker": 4713,
      "President": 4714,
      "Im": 4715,
      "move": 4716,
      "##ida": 4717,
      "positive": 4718,
      "grad": 4719,
      "Ber": 4720,
      "Day": 4721,
      "hours": 4722,
      "##atory": 4723,
      "directed": 4724,
      "##liam": 4725,
      "##ites": 4726,
      "##agon": 4727,
      "Republic": 4728,
      "35": 4729,
      "mph": 4730,
      "##ring": 4731,
      "largest": 4732,
      "Navy": 4733,
      "meas": 4734,
      "##iforn": 4735,
      "director": 4736,
      "forced": 4737,
      "##ishing": 4738,
      "contr": 4739,
      "runs": 4740,
      "particip": 4741,
      "##itz": 4742,
      "##ston": 4743,
      "##ude": 4744,
      "outside": 4745,
      "rap": 4746,
      "##ming": 4747,
      "transfer": 4748,
      "aut": 4749,
      "Frank": 4750,
      "God": 4751,
      "##mar": 4752,
      "evidence": 4753,
      "lear": 4754,
      "##fall": 4755,
      "##urg": 4756,
      "Californ": 4757,
      "##iff": 4758,
      "joined": 4759,
      "Sl": 4760,
      "##ki": 4761,
      "##ete": 4762,
      "##oke": 4763,
      "Res": 4764,
      "respons": 4765,
      "love": 4766,
      "viol": 4767,
      "##onst": 4768,
      "##ections": 4769,
      "##ification": 4770,
      "##ma": 4771,
      "central": 4772,
      "Battle": 4773,
      "ren": 4774,
      "disp": 4775,
      "Michigan": 4776,
      "Thomas": 4777,
      "Crit": 4778,
      "phys": 4779,
      "elements": 4780,
      "rail": 4781,
      "taking": 4782,
      "threat": 4783,
      "stars": 4784,
      "replaced": 4785,
      "Virgin": 4786,
      "##liament": 4787,
      "##ams": 4788,
      "##ateg": 4789,
      "Mal": 4790,
      "184": 4791,
      "remov": 4792,
      "mean": 4793,
      "Ire": 4794,
      "achie": 4795,
      "pur": 4796,
      "##uter": 4797,
      "base": 4798,
      "California": 4799,
      "Great": 4800,
      "mi": 4801,
      "##uation": 4802,
      "##west": 4803,
      "feel": 4804,
      "Sen": 4805,
      "river": 4806,
      "ur": 4807,
      "increased": 4808,
      "claimed": 4809,
      "bi": 4810,
      "langu": 4811,
      "##itor": 4812,
      "highway": 4813,
      "Ol": 4814,
      "##bor": 4815,
      "##etwork": 4816,
      "##osition": 4817,
      "office": 4818,
      "employ": 4819,
      "previously": 4820,
      "Ireland": 4821,
      "hous": 4822,
      "pers": 4823,
      "enough": 4824,
      "avail": 4825,
      "draw": 4826,
      "hom": 4827,
      "whom": 4828,
      "priv": 4829,
      "training": 4830,
      "above": 4831,
      "Most": 4832,
      "usually": 4833,
      "##anned": 4834,
      "signed": 4835,
      "construct": 4836,
      "##ump": 4837,
      "army": 4838,
      "Ha": 4839,
      "Mark": 4840,
      "##be": 4841,
      "##atin": 4842,
      "stop": 4843,
      "praised": 4844,
      "issue": 4845,
      "Er": 4846,
      "##mb": 4847,
      "personal": 4848,
      "##ky": 4849,
      "initially": 4850,
      "Pe": 4851,
      "##to": 4852,
      "##heast": 4853,
      "##ication": 4854,
      "study": 4855,
      "highest": 4856,
      "Pac": 4857,
      "Tex": 4858,
      "##co": 4859,
      "##ander": 4860,
      "##ayed": 4861,
      "Hot": 4862,
      "##ado": 4863,
      "break": 4864,
      "Feder": 4865,
      "clear": 4866,
      "required": 4867,
      "36": 4868,
      "##han": 4869,
      "##itte": 4870,
      "passed": 4871,
      "Me": 4872,
      "##ibility": 4873,
      "quar": 4874,
      "female": 4875,
      "Cour": 4876,
      "##essional": 4877,
      "debut": 4878,
      "earlier": 4879,
      "Times": 4880,
      "45": 4881,
      "hard": 4882,
      "##oid": 4883,
      "fort": 4884,
      "contrib": 4885,
      "##ecutive": 4886,
      "pot": 4887,
      "##urb": 4888,
      "##thlet": 4889,
      "cru": 4890,
      "nine": 4891,
      "pit": 4892,
      "##irth": 4893,
      "##ands": 4894,
      "writer": 4895,
      "India": 4896,
      "Nor": 4897,
      "##jects": 4898,
      "spent": 4899,
      "hop": 4900,
      "think": 4901,
      "troops": 4902,
      "bill": 4903,
      "dro": 4904,
      "##osing": 4905,
      "interview": 4906,
      "told": 4907,
      "##etic": 4908,
      "shot": 4909,
      "2000": 4910,
      "northern": 4911,
      "fall": 4912,
      "##inist": 4913,
      "goal": 4914,
      "##ilities": 4915,
      "change": 4916,
      "183": 4917,
      "specific": 4918,
      "Henry": 4919,
      "Pacific": 4920,
      "Town": 4921,
      "fly": 4922,
      "western": 4923,
      "units": 4924,
      "center": 4925,
      "according": 4926,
      "Bu": 4927,
      "Mont": 4928,
      "den": 4929,
      "educ": 4930,
      "nuc": 4931,
      "##hib": 4932,
      "##ises": 4933,
      "court": 4934,
      "introduced": 4935,
      "Cong": 4936,
      "Cup": 4937,
      "La": 4938,
      "##eum": 4939,
      "##val": 4940,
      "##edy": 4941,
      "60": 4942,
      "80": 4943,
      "might": 4944,
      "##ze": 4945,
      "##rian": 4946,
      "##antry": 4947,
      "Later": 4948,
      "winds": 4949,
      "estimated": 4950,
      "##aire": 4951,
      "inn": 4952,
      "##abit": 4953,
      "Te": 4954,
      "cal": 4955,
      "civil": 4956,
      "##ores": 4957,
      "That": 4958,
      "Union": 4959,
      "poor": 4960,
      "##lt": 4961,
      "##unt": 4962,
      "##oph": 4963,
      "metal": 4964,
      "Carol": 4965,
      "Go": 4966,
      "##ability": 4967,
      "immedi": 4968,
      "sometimes": 4969,
      "wat": 4970,
      "itself": 4971,
      "discuss": 4972,
      "ap": 4973,
      "##het": 4974,
      "##ota": 4975,
      "effects": 4976,
      "buildings": 4977,
      "Gold": 4978,
      "Wales": 4979,
      "room": 4980,
      "##ville": 4981,
      "magazine": 4982,
      "Richard": 4983,
      "Govern": 4984,
      "Som": 4985,
      "section": 4986,
      "##isl": 4987,
      "surf": 4988,
      "awarded": 4989,
      "Vict": 4990,
      "Jos": 4991,
      "Pri": 4992,
      "hurricane": 4993,
      "op": 4994,
      "piec": 4995,
      "##aut": 4996,
      "recording": 4997,
      "Peter": 4998,
      "##lor": 4999,
      "##ha": 5000,
      "tow": 5001,
      "beg": 5002,
      "percent": 5003,
      "party": 5004,
      "commission": 5005,
      "Ke": 5006,
      "pain": 5007,
      "##me": 5008,
      "##gl": 5009,
      "##NA": 5010,
      "##alv": 5011,
      "come": 5012,
      "turned": 5013,
      "bur": 5014,
      "god": 5015,
      "##ective": 5016,
      "idea": 5017,
      "fut": 5018,
      "vir": 5019,
      "despite": 5020,
      "breed": 5021,
      "Hill": 5022,
      "give": 5023,
      "Jenn": 5024,
      "conduct": 5025,
      "##apt": 5026,
      "ordered": 5027,
      "Award": 5028,
      "wood": 5029,
      "abs": 5030,
      "screen": 5031,
      "available": 5032,
      "express": 5033,
      "ended": 5034,
      "##aughter": 5035,
      "cat": 5036,
      "di": 5037,
      "##acing": 5038,
      "##urt": 5039,
      "##pper": 5040,
      "##orses": 5041,
      "operations": 5042,
      "##ready": 5043,
      "frequ": 5044,
      "Tom": 5045,
      "don": 5046,
      "##aries": 5047,
      "better": 5048,
      "manager": 5049,
      "##asy": 5050,
      "shows": 5051,
      "Canadian": 5052,
      "sil": 5053,
      "Britain": 5054,
      "Smith": 5055,
      "Bow": 5056,
      "Mart": 5057,
      "Penn": 5058,
      "food": 5059,
      "past": 5060,
      "size": 5061,
      "##ume": 5062,
      "fiction": 5063,
      "##ulated": 5064,
      "acqu": 5065,
      "lyric": 5066,
      "Ever": 5067,
      "rul": 5068,
      "##arily": 5069,
      "##emor": 5070,
      "whose": 5071,
      "independ": 5072,
      "reviews": 5073,
      "Associ": 5074,
      "beginning": 5075,
      "Wash": 5076,
      "econ": 5077,
      "##cer": 5078,
      "episodes": 5079,
      "police": 5080,
      "parts": 5081,
      "friends": 5082,
      "staff": 5083,
      "Film": 5084,
      "Soc": 5085,
      "liter": 5086,
      "##ania": 5087,
      "except": 5088,
      "##elled": 5089,
      "##ylan": 5090,
      "Florida": 5091,
      "Bay": 5092,
      "Ital": 5093,
      "gold": 5094,
      "key": 5095,
      "##oles": 5096,
      "##porary": 5097,
      "Dylan": 5098,
      "##nel": 5099,
      "19th": 5100,
      "league": 5101,
      "arrived": 5102,
      "Stud": 5103,
      "additional": 5104,
      "certain": 5105,
      "Atlantic": 5106,
      "appointed": 5107,
      "Off": 5108,
      "already": 5109,
      "##aph": 5110,
      "appl": 5111,
      "slow": 5112,
      "cel": 5113,
      "surround": 5114,
      "##specially": 5115,
      "Washington": 5116,
      "lower": 5117,
      "##arn": 5118,
      "##olic": 5119,
      "Early": 5120,
      "##ittee": 5121,
      "##lin": 5122,
      "international": 5123,
      "##rief": 5124,
      "##ease": 5125,
      "flood": 5126,
      "going": 5127,
      "larger": 5128,
      "NY": 5129,
      "horse": 5130,
      "##anded": 5131,
      "Over": 5132,
      "##AF": 5133,
      "##onse": 5134,
      "remain": 5135,
      "remains": 5136,
      "occup": 5137,
      "cred": 5138,
      "assist": 5139,
      "studio": 5140,
      "increasing": 5141,
      "suggested": 5142,
      "especially": 5143,
      "##arrison": 5144,
      "limited": 5145,
      "Just": 5146,
      "Up": 5147,
      "##asons": 5148,
      "capital": 5149,
      "Lou": 5150,
      "##rd": 5151,
      "tourn": 5152,
      "Charles": 5153,
      "commercial": 5154,
      "App": 5155,
      "Boy": 5156,
      "How": 5157,
      "##acter": 5158,
      "Battalion": 5159,
      "bank": 5160,
      "##ein": 5161,
      "##aven": 5162,
      "reveal": 5163,
      "approx": 5164,
      "pair": 5165,
      "##gen": 5166,
      "##inct": 5167,
      "prepar": 5168,
      "films": 5169,
      "##ronic": 5170,
      "soldiers": 5171,
      "Wood": 5172,
      "##iqu": 5173,
      "##yr": 5174,
      "##aring": 5175,
      "##ription": 5176,
      "Awards": 5177,
      "If": 5178,
      "##enz": 5179,
      "social": 5180,
      "woman": 5181,
      "withd": 5182,
      "##usp": 5183,
      "deal": 5184,
      "Chic": 5185,
      "attract": 5186,
      "proposed": 5187,
      "Wil": 5188,
      "##reak": 5189,
      "imm": 5190,
      "Virginia": 5191,
      "Russ": 5192,
      "doc": 5193,
      "states": 5194,
      "College": 5195,
      "complete": 5196,
      "History": 5197,
      "##bers": 5198,
      "remaining": 5199,
      "determ": 5200,
      "prior": 5201,
      "##gar": 5202,
      "##ros": 5203,
      "react": 5204,
      "phot": 5205,
      "##ults": 5206,
      "Pet": 5207,
      "Sam": 5208,
      "test": 5209,
      "trib": 5210,
      "community": 5211,
      "structure": 5212,
      "Angel": 5213,
      "##vir": 5214,
      "##ector": 5215,
      "groups": 5216,
      "##ournal": 5217,
      "Victor": 5218,
      "UK": 5219,
      "lines": 5220,
      "##illa": 5221,
      "complex": 5222,
      "Ann": 5223,
      "Super": 5224,
      "Ot": 5225,
      "##vert": 5226,
      "##pped": 5227,
      "75": 5228,
      "Dev": 5229,
      "mot": 5230,
      "##ging": 5231,
      "##inese": 5232,
      "Don": 5233,
      "Jew": 5234,
      "##ees": 5235,
      "##amer": 5236,
      "##ends": 5237,
      "Franc": 5238,
      "students": 5239,
      "winning": 5240,
      "establish": 5241,
      "Many": 5242,
      "Chinese": 5243,
      "pen": 5244,
      "##iser": 5245,
      "experience": 5246,
      "##gn": 5247,
      "bridge": 5248,
      "transport": 5249,
      "quickly": 5250,
      "Mer": 5251,
      "living": 5252,
      "##raz": 5253,
      "##hips": 5254,
      "keep": 5255,
      "Texas": 5256,
      "future": 5257,
      "32": 5258,
      "fleet": 5259,
      "park": 5260,
      "research": 5261,
      "Art": 5262,
      "decision": 5263,
      "block": 5264,
      "media": 5265,
      "##ospital": 5266,
      "becoming": 5267,
      "Law": 5268,
      "failed": 5269,
      "##idents": 5270,
      "##berg": 5271,
      "Chicago": 5272,
      "brief": 5273,
      "yard": 5274,
      "##enty": 5275,
      "##teen": 5276,
      "conclud": 5277,
      "officers": 5278,
      "married": 5279,
      "minutes": 5280,
      "anc": 5281,
      "intended": 5282,
      "market": 5283,
      "speed": 5284,
      "destroyed": 5285,
      "38": 5286,
      "Rad": 5287,
      "##ails": 5288,
      "musical": 5289,
      "##incip": 5290,
      "Jim": 5291,
      "##lands": 5292,
      "probably": 5293,
      "lab": 5294,
      "latter": 5295,
      "prem": 5296,
      "response": 5297,
      "##ports": 5298,
      "summer": 5299,
      "question": 5300,
      "00": 5301,
      "coin": 5302,
      "##ks": 5303,
      "Star": 5304,
      "Brigade": 5305,
      "goals": 5306,
      "asked": 5307,
      "1999": 5308,
      "Big": 5309,
      "##thing": 5310,
      "##ecting": 5311,
      "money": 5312,
      "nearly": 5313,
      "battles": 5314,
      "cycl": 5315,
      "##omic": 5316,
      "carried": 5317,
      "entered": 5318,
      "fir": 5319,
      "Inter": 5320,
      "notes": 5321,
      "related": 5322,
      "changes": 5323,
      "broadcast": 5324,
      "der": 5325,
      "##back": 5326,
      "##essed": 5327,
      "intens": 5328,
      "diss": 5329,
      "likely": 5330,
      "Met": 5331,
      "Ver": 5332,
      "cause": 5333,
      "rain": 5334,
      "teams": 5335,
      "multip": 5336,
      "Bel": 5337,
      "Mr": 5338,
      "voice": 5339,
      "longer": 5340,
      "problems": 5341,
      "Fort": 5342,
      "Sun": 5343,
      "male": 5344,
      "discovered": 5345,
      "300": 5346,
      "Bell": 5347,
      "mixed": 5348,
      "Cross": 5349,
      "date": 5350,
      "##tained": 5351,
      "adop": 5352,
      "village": 5353,
      "Serv": 5354,
      "natural": 5355,
      "##ih": 5356,
      "##owers": 5357,
      "minor": 5358,
      "feature": 5359,
      "supported": 5360,
      "Second": 5361,
      "Court": 5362,
      "Lake": 5363,
      "TV": 5364,
      "##osaur": 5365,
      "agreed": 5366,
      "big": 5367,
      "Arab": 5368,
      "Wal": 5369,
      "cur": 5370,
      "cell": 5371,
      "purch": 5372,
      "thus": 5373,
      "##eball": 5374,
      "pressure": 5375,
      "lived": 5376,
      "##ady": 5377,
      "flight": 5378,
      "##nes": 5379,
      "stories": 5380,
      "##ership": 5381,
      "running": 5382,
      "Western": 5383,
      "Year": 5384,
      "cm": 5385,
      "intern": 5386,
      "ens": 5387,
      "mostly": 5388,
      "Billboard": 5389,
      "Hum": 5390,
      "Oly": 5391,
      "pay": 5392,
      "##change": 5393,
      "changed": 5394,
      "defeated": 5395,
      "Ma": 5396,
      "approximately": 5397,
      "##viron": 5398,
      "Camp": 5399,
      "Tor": 5400,
      "tor": 5401,
      "##ties": 5402,
      "##rect": 5403,
      "Bec": 5404,
      "cer": 5405,
      "wide": 5406,
      "##atively": 5407,
      "##imum": 5408,
      "##alled": 5409,
      "leaving": 5410,
      "##hester": 5411,
      "type": 5412,
      "##ari": 5413,
      "##ously": 5414,
      "includes": 5415,
      "themsel": 5416,
      "Africa": 5417,
      "Olymp": 5418,
      "themselves": 5419,
      "33": 5420,
      "done": 5421,
      "##zz": 5422,
      "dead": 5423,
      "earned": 5424,
      "Str": 5425,
      "Scott": 5426,
      "##undred": 5427,
      "lyrics": 5428,
      "Saint": 5429,
      "sea": 5430,
      "election": 5431,
      "focus": 5432,
      "birth": 5433,
      "network": 5434,
      "##uing": 5435,
      "prote": 5436,
      "concern": 5437,
      "distrib": 5438,
      "language": 5439,
      "Green": 5440,
      "##hew": 5441,
      "numbers": 5442,
      "access": 5443,
      "African": 5444,
      "ranked": 5445,
      "Sir": 5446,
      "susp": 5447,
      "##oes": 5448,
      "##inn": 5449,
      "account": 5450,
      "Johnson": 5451,
      "consider": 5452,
      "helped": 5453,
      "daughter": 5454,
      "sat": 5455,
      "##inent": 5456,
      "confl": 5457,
      "##ounds": 5458,
      "##ervation": 5459,
      "Gar": 5460,
      "Rob": 5461,
      "pil": 5462,
      "##atives": 5463,
      "contem": 5464,
      "smaller": 5465,
      "Tel": 5466,
      "##hod": 5467,
      "moving": 5468,
      "emer": 5469,
      "word": 5470,
      "##rate": 5471,
      "##imate": 5472,
      "##uments": 5473,
      "terms": 5474,
      "Mexico": 5475,
      "horses": 5476,
      "mur": 5477,
      "walk": 5478,
      "##ault": 5479,
      "##isions": 5480,
      "always": 5481,
      "exam": 5482,
      "occurred": 5483,
      "Association": 5484,
      "Dep": 5485,
      "Mill": 5486,
      "Tay": 5487,
      "##ocr": 5488,
      "182": 5489,
      "emb": 5490,
      "Trans": 5491,
      "temper": 5492,
      "radio": 5493,
      "provide": 5494,
      "visit": 5495,
      "favor": 5496,
      "Gre": 5497,
      "board": 5498,
      "##anz": 5499,
      "##andon": 5500,
      "leave": 5501,
      "records": 5502,
      "lo": 5503,
      "mach": 5504,
      "mention": 5505,
      "##irl": 5506,
      "deep": 5507,
      "shoot": 5508,
      "##ples": 5509,
      "scenes": 5510,
      "arrang": 5511,
      "Del": 5512,
      "Foot": 5513,
      "Ill": 5514,
      "Stev": 5515,
      "contains": 5516,
      "fifth": 5517,
      "celeb": 5518,
      "70": 5519,
      "sch": 5520,
      "##oper": 5521,
      "quarter": 5522,
      "face": 5523,
      "tons": 5524,
      "chall": 5525,
      "##quar": 5526,
      "underst": 5527,
      "listed": 5528,
      "professional": 5529,
      "Pat": 5530,
      "burn": 5531,
      "##ror": 5532,
      "##wh": 5533,
      "ener": 5534,
      "religious": 5535,
      "names": 5536,
      "raised": 5537,
      "##ria": 5538,
      "influence": 5539,
      "##rest": 5540,
      "##icted": 5541,
      "location": 5542,
      "Highway": 5543,
      "launched": 5544,
      "Lenn": 5545,
      "Tech": 5546,
      "our": 5547,
      "yards": 5548,
      "##kin": 5549,
      "##aded": 5550,
      "deg": 5551,
      "appears": 5552,
      "private": 5553,
      "Hel": 5554,
      "Not": 5555,
      "Nort": 5556,
      "Since": 5557,
      "mom": 5558,
      "thr": 5559,
      "##order": 5560,
      "increase": 5561,
      "37": 5562,
      "Under": 5563,
      "makes": 5564,
      "##iest": 5565,
      "##riage": 5566,
      "score": 5567,
      "consist": 5568,
      "1995": 5569,
      "current": 5570,
      "1st": 5571,
      "Sol": 5572,
      "Zeal": 5573,
      "saf": 5574,
      "und": 5575,
      "##tr": 5576,
      "##rupt": 5577,
      "Germany": 5578,
      "dark": 5579,
      "##tered": 5580,
      "181": 5581,
      "Arch": 5582,
      "theme": 5583,
      "##orning": 5584,
      "Taylor": 5585,
      "forward": 5586,
      "compared": 5587,
      "III": 5588,
      "sem": 5589,
      "##iant": 5590,
      "##ona": 5591,
      "##road": 5592,
      "bring": 5593,
      "poet": 5594,
      "copies": 5595,
      "investig": 5596,
      "Los": 5597,
      "overall": 5598,
      "179": 5599,
      "initial": 5600,
      "Jackson": 5601,
      "##ension": 5602,
      "something": 5603,
      "Zealand": 5604,
      "##sw": 5605,
      "movement": 5606,
      "producer": 5607,
      "Hear": 5608,
      "ran": 5609,
      "##jected": 5610,
      "##itude": 5611,
      "domin": 5612,
      "damaged": 5613,
      "Irish": 5614,
      "##imb": 5615,
      "heav": 5616,
      "##eph": 5617,
      "course": 5618,
      "selected": 5619,
      "got": 5620,
      "link": 5621,
      "##fect": 5622,
      "space": 5623,
      "Const": 5624,
      "guitar": 5625,
      "captured": 5626,
      "archit": 5627,
      "meeting": 5628,
      "commented": 5629,
      "Jennings": 5630,
      "47": 5631,
      "Alex": 5632,
      "lay": 5633,
      "self": 5634,
      "##leg": 5635,
      "##umn": 5636,
      "1998": 5637,
      "##ograph": 5638,
      "Bur": 5639,
      "Coun": 5640,
      "Egy": 5641,
      "Haw": 5642,
      "Out": 5643,
      "##aches": 5644,
      "experi": 5645,
      "Egypt": 5646,
      "Fe": 5647,
      "compan": 5648,
      "Acad": 5649,
      "Ter": 5650,
      "##lo": 5651,
      "##odies": 5652,
      "shown": 5653,
      "method": 5654,
      "create": 5655,
      "Edward": 5656,
      "##onna": 5657,
      "Croat": 5658,
      "inspired": 5659,
      "constructed": 5660,
      "Both": 5661,
      "nature": 5662,
      "##not": 5663,
      "##atre": 5664,
      "##olves": 5665,
      "whether": 5666,
      "status": 5667,
      "boy": 5668,
      "concept": 5669,
      "colon": 5670,
      "anti": 5671,
      "function": 5672,
      "tournament": 5673,
      "kind": 5674,
      "surface": 5675,
      "##band": 5676,
      "health": 5677,
      "##eway": 5678,
      "newsp": 5679,
      "critical": 5680,
      "majority": 5681,
      "Back": 5682,
      "Oper": 5683,
      "dig": 5684,
      "job": 5685,
      "##esh": 5686,
      "##iles": 5687,
      "##onds": 5688,
      "grand": 5689,
      "largely": 5690,
      "##uff": 5691,
      "##itation": 5692,
      "spir": 5693,
      "Force": 5694,
      "countries": 5695,
      "##aught": 5696,
      "suggest": 5697,
      "higher": 5698,
      "Italian": 5699,
      "44": 5700,
      "##down": 5701,
      "##inated": 5702,
      "##cean": 5703,
      "indic": 5704,
      "##isk": 5705,
      "poem": 5706,
      "Earth": 5707,
      "referred": 5708,
      "Its": 5709,
      "##isher": 5710,
      "##oms": 5711,
      "thick": 5712,
      "whole": 5713,
      "subsequently": 5714,
      "Tre": 5715,
      "fail": 5716,
      "log": 5717,
      "assigned": 5718,
      "services": 5719,
      "##ylv": 5720,
      "##uries": 5721,
      "trade": 5722,
      "Central": 5723,
      "Work": 5724,
      "farm": 5725,
      "ult": 5726,
      "really": 5727,
      "##illed": 5728,
      "Enter": 5729,
      "##vironment": 5730,
      "90": 5731,
      "Dou": 5732,
      "jud": 5733,
      "kil": 5734,
      "rat": 5735,
      "##ij": 5736,
      "##erve": 5737,
      "analy": 5738,
      "1997": 5739,
      "object": 5740,
      "finally": 5741,
      "portr": 5742,
      "needed": 5743,
      "necess": 5744,
      "##che": 5745,
      "##udd": 5746,
      "180": 5747,
      "primary": 5748,
      "Carolina": 5749,
      "Dist": 5750,
      "##ny": 5751,
      "##win": 5752,
      "##ken": 5753,
      "##ulations": 5754,
      "##osen": 5755,
      "planned": 5756,
      "##hens": 5757,
      "##anna": 5758,
      "immediately": 5759,
      "Viet": 5760,
      "##awn": 5761,
      "plot": 5762,
      "meant": 5763,
      "information": 5764,
      "purp": 5765,
      "Lennon": 5766,
      "Bus": 5767,
      "Route": 5768,
      "Sever": 5769,
      "##fact": 5770,
      "##hood": 5771,
      "##asc": 5772,
      "plans": 5773,
      "issued": 5774,
      "Squadron": 5775,
      "fans": 5776,
      "##la": 5777,
      "##hold": 5778,
      "##umed": 5779,
      "uns": 5780,
      "##izing": 5781,
      "Sea": 5782,
      "Another": 5783,
      "carry": 5784,
      "Cont": 5785,
      "Gulf": 5786,
      "##ening": 5787,
      "##emic": 5788,
      "refl": 5789,
      "Je": 5790,
      "Turn": 5791,
      "giving": 5792,
      "path": 5793,
      "##ano": 5794,
      "##ili": 5795,
      "closed": 5796,
      "double": 5797,
      "BC": 5798,
      "Lord": 5799,
      "upper": 5800,
      "sched": 5801,
      "##aily": 5802,
      "active": 5803,
      "slight": 5804,
      "traditional": 5805,
      "Bey": 5806,
      "##ican": 5807,
      "##aging": 5808,
      "##rial": 5809,
      "disapp": 5810,
      "##ibly": 5811,
      "birds": 5812,
      "doll": 5813,
      "hundred": 5814,
      "##acher": 5815,
      "championship": 5816,
      "##ibr": 5817,
      "variety": 5818,
      "tracks": 5819,
      "defeat": 5820,
      "meaning": 5821,
      "So": 5822,
      "norm": 5823,
      "sen": 5824,
      "talk": 5825,
      "refused": 5826,
      "society": 5827,
      "industry": 5828,
      "Mic": 5829,
      "##andid": 5830,
      "20th": 5831,
      "polic": 5832,
      "nearby": 5833,
      "removed": 5834,
      "Cast": 5835,
      "Matt": 5836,
      "cle": 5837,
      "princip": 5838,
      "offered": 5839,
      "##airs": 5840,
      "##anning": 5841,
      "Spok": 5842,
      "Club": 5843,
      "suffered": 5844,
      "##quarters": 5845,
      "Cath": 5846,
      "tar": 5847,
      "##ero": 5848,
      "1996": 5849,
      "means": 5850,
      "controll": 5851,
      "legisl": 5852,
      "standard": 5853,
      "Tour": 5854,
      "##itual": 5855,
      "##utch": 5856,
      "unable": 5857,
      "prec": 5858,
      "takes": 5859,
      "##cle": 5860,
      "##ortun": 5861,
      "financ": 5862,
      "rapid": 5863,
      "Major": 5864,
      "wall": 5865,
      "##anes": 5866,
      "##oses": 5867,
      "display": 5868,
      "1992": 5869,
      "symb": 5870,
      "Hurricane": 5871,
      "Rel": 5872,
      "stating": 5873,
      "##ify": 5874,
      "subst": 5875,
      "##ounts": 5876,
      "administ": 5877,
      "Dem": 5878,
      "Hon": 5879,
      "athlet": 5880,
      "touch": 5881,
      "##ibb": 5882,
      "##annel": 5883,
      "observed": 5884,
      "associated": 5885,
      "gre": 5886,
      "yet": 5887,
      "##well": 5888,
      "reach": 5889,
      "scient": 5890,
      "accomp": 5891,
      "elected": 5892,
      "constit": 5893,
      "Queen": 5894,
      "respectively": 5895,
      "Louis": 5896,
      "Dis": 5897,
      "##urity": 5898,
      "serious": 5899,
      "conditions": 5900,
      "reduced": 5901,
      "aw": 5902,
      "rate": 5903,
      "via": 5904,
      "depression": 5905,
      "amount": 5906,
      "artist": 5907,
      "prevent": 5908,
      "hands": 5909,
      "competition": 5910,
      "har": 5911,
      "##bit": 5912,
      "ending": 5913,
      "numerous": 5914,
      "books": 5915,
      "49": 5916,
      "Bas": 5917,
      "attention": 5918,
      "occasion": 5919,
      "attacked": 5920,
      "Center": 5921,
      "schol": 5922,
      "Bank": 5923,
      "##sis": 5924,
      "chap": 5925,
      "uses": 5926,
      "minute": 5927,
      "commander": 5928,
      "combat": 5929,
      "Creek": 5930,
      "Dom": 5931,
      "Jer": 5932,
      "dom": 5933,
      "division": 5934,
      "watch": 5935,
      "inches": 5936,
      "##embly": 5937,
      "below": 5938,
      "39": 5939,
      "hot": 5940,
      "##rom": 5941,
      "##iny": 5942,
      "##ining": 5943,
      "##anced": 5944,
      "##rown": 5945,
      "traff": 5946,
      "unit": 5947,
      "attacks": 5948,
      "schools": 5949,
      "Parliament": 5950,
      "marked": 5951,
      "confir": 5952,
      "42": 5953,
      "##enant": 5954,
      "##ellow": 5955,
      "Scot": 5956,
      "##tainment": 5957,
      "Games": 5958,
      "##ingu": 5959,
      "metres": 5960,
      "model": 5961,
      "energy": 5962,
      "Council": 5963,
      "Jord": 5964,
      "bound": 5965,
      "hour": 5966,
      "pick": 5967,
      "search": 5968,
      "##uated": 5969,
      "##de": 5970,
      "extended": 5971,
      "resulted": 5972,
      "covered": 5973,
      "Che": 5974,
      "Latin": 5975,
      "lif": 5976,
      "##iro": 5977,
      "##eler": 5978,
      "Inf": 5979,
      "China": 5980,
      "attended": 5981,
      "weap": 5982,
      "extrem": 5983,
      "dra": 5984,
      "##ouri": 5985,
      "sev": 5986,
      "centre": 5987,
      "Adm": 5988,
      "Party": 5989,
      "Kar": 5990,
      "bow": 5991,
      "university": 5992,
      "composed": 5993,
      "presence": 5994,
      "ess": 5995,
      "##uct": 5996,
      "##AA": 5997,
      "##essor": 5998,
      "cho": 5999,
      "1993": 6000,
      "directly": 6001,
      "audience": 6002,
      "Jordan": 6003,
      "400": 6004,
      "bene": 6005,
      "##eign": 6006,
      "asp": 6007,
      "reason": 6008,
      "##astic": 6009,
      "unl": 6010,
      "neigh": 6011,
      "Arm": 6012,
      "attempted": 6013,
      "##ipped": 6014,
      "Service": 6015,
      "34": 6016,
      "##eline": 6017,
      "##ims": 6018,
      "performances": 6019,
      "counter": 6020,
      "traffic": 6021,
      "Tur": 6022,
      "hus": 6023,
      "max": 6024,
      "rein": 6025,
      "incor": 6026,
      "abandon": 6027,
      "formula": 6028,
      "officer": 6029,
      "Corps": 6030,
      "Regiment": 6031,
      "vocal": 6032,
      "Congress": 6033,
      "##enge": 6034,
      "##ita": 6035,
      "Bet": 6036,
      "Card": 6037,
      "Os": 6038,
      "##rical": 6039,
      "##ka": 6040,
      "parents": 6041,
      "declared": 6042,
      "Northern": 6043,
      "Ben": 6044,
      "Harrison": 6045,
      "middle": 6046,
      "nation": 6047,
      "sales": 6048,
      "##mas": 6049,
      "chief": 6050,
      "recomm": 6051,
      "script": 6052,
      "Cle": 6053,
      "Group": 6054,
      "Sur": 6055,
      "Var": 6056,
      "bad": 6057,
      "mor": 6058,
      "##istics": 6059,
      "subject": 6060,
      "accepted": 6061,
      "territory": 6062,
      "Football": 6063,
      "ded": 6064,
      "want": 6065,
      "##light": 6066,
      "##mark": 6067,
      "##icip": 6068,
      "blood": 6069,
      "leader": 6070,
      "Series": 6071,
      "separate": 6072,
      "source": 6073,
      "feder": 6074,
      "##iled": 6075,
      "##aped": 6076,
      "write": 6077,
      "highly": 6078,
      "##mpire": 6079,
      "letter": 6080,
      "cerem": 6081,
      "Rail": 6082,
      "##sylv": 6083,
      "##oured": 6084,
      "text": 6085,
      "continue": 6086,
      "Pennsylv": 6087,
      "Fer": 6088,
      "Row": 6089,
      "Southern": 6090,
      "Time": 6091,
      "box": 6092,
      "mission": 6093,
      "narr": 6094,
      "purs": 6095,
      "##och": 6096,
      "##joy": 6097,
      "##aby": 6098,
      "recover": 6099,
      "##peror": 6100,
      "##rael": 6101,
      "produce": 6102,
      "instr": 6103,
      "Blue": 6104,
      "impact": 6105,
      "culture": 6106,
      "Leg": 6107,
      "##vement": 6108,
      "##pool": 6109,
      "##inary": 6110,
      "##ora": 6111,
      "##ality": 6112,
      "things": 6113,
      "##iano": 6114,
      "agre": 6115,
      "##stitute": 6116,
      "architect": 6117,
      "lot": 6118,
      "##arrow": 6119,
      "plat": 6120,
      "intell": 6121,
      "2016": 6122,
      "##anger": 6123,
      "1941": 6124,
      "Adv": 6125,
      "viewers": 6126,
      "revealed": 6127,
      "greater": 6128,
      "UN": 6129,
      "chem": 6130,
      "##MS": 6131,
      "Their": 6132,
      "##oint": 6133,
      "presented": 6134,
      "matches": 6135,
      "concluded": 6136,
      "Several": 6137,
      "Def": 6138,
      "Jul": 6139,
      "Sov": 6140,
      "pip": 6141,
      "rights": 6142,
      "altern": 6143,
      "heart": 6144,
      "actions": 6145,
      "responsible": 6146,
      "Cons": 6147,
      "Kr": 6148,
      "##ych": 6149,
      "##itting": 6150,
      "##elop": 6151,
      "Through": 6152,
      "singer": 6153,
      "artic": 6154,
      "collection": 6155,
      "issues": 6156,
      "education": 6157,
      "Angeles": 6158,
      "Spokane": 6159,
      "Bull": 6160,
      "cas": 6161,
      "candid": 6162,
      "rout": 6163,
      "##oration": 6164,
      "annual": 6165,
      "levels": 6166,
      "Do": 6167,
      "##cend": 6168,
      "Three": 6169,
      "Israel": 6170,
      "powerful": 6171,
      "vehic": 6172,
      "figure": 6173,
      "fighting": 6174,
      "houses": 6175,
      "sister": 6176,
      "wa": 6177,
      "operation": 6178,
      "struck": 6179,
      "walls": 6180,
      "##na": 6181,
      "##ym": 6182,
      "appearances": 6183,
      "allowing": 6184,
      "twenty": 6185,
      "Kent": 6186,
      "##nown": 6187,
      "forms": 6188,
      "distinct": 6189,
      "designated": 6190,
      "marriage": 6191,
      "Records": 6192,
      "Secret": 6193,
      "quality": 6194,
      "41": 6195,
      "Final": 6196,
      "bacter": 6197,
      "##onc": 6198,
      "##ety": 6199,
      "##ada": 6200,
      "seem": 6201,
      "1994": 6202,
      "studies": 6203,
      "starting": 6204,
      "torped": 6205,
      "Camb": 6206,
      "Little": 6207,
      "##bour": 6208,
      "##onents": 6209,
      "inside": 6210,
      "##ether": 6211,
      "situation": 6212,
      "Vietn": 6213,
      "DV": 6214,
      "Long": 6215,
      "##cy": 6216,
      "##gu": 6217,
      "secret": 6218,
      "blue": 6219,
      "vocals": 6220,
      "Martin": 6221,
      "Pre": 6222,
      "corn": 6223,
      "enjoy": 6224,
      "1991": 6225,
      "drum": 6226,
      "effort": 6227,
      "tower": 6228,
      "husband": 6229,
      "Sant": 6230,
      "morning": 6231,
      "calling": 6232,
      "##stein": 6233,
      "acting": 6234,
      "depart": 6235,
      "Hal": 6236,
      "##mitted": 6237,
      "inters": 6238,
      "##eston": 6239,
      "##antasy": 6240,
      "Step": 6241,
      "prison": 6242,
      "##ieut": 6243,
      "actually": 6244,
      "Add": 6245,
      "demonst": 6246,
      "Missouri": 6247,
      "practice": 6248,
      "begins": 6249,
      "conducted": 6250,
      "Department": 6251,
      "48": 6252,
      "Liber": 6253,
      "##ys": 6254,
      "science": 6255,
      "Carey": 6256,
      "Hero": 6257,
      "##echan": 6258,
      "typically": 6259,
      "transferred": 6260,
      "Mass": 6261,
      "##cel": 6262,
      "Academy": 6263,
      "##AS": 6264,
      "##oud": 6265,
      "plant": 6266,
      "widely": 6267,
      "DVD": 6268,
      "Lew": 6269,
      "##under": 6270,
      "##da": 6271,
      "##estival": 6272,
      "##track": 6273,
      "Bob": 6274,
      "Book": 6275,
      "Kh": 6276,
      "habit": 6277,
      "tax": 6278,
      "observ": 6279,
      "historical": 6280,
      "kept": 6281,
      "Gard": 6282,
      "Post": 6283,
      "##key": 6284,
      "##otes": 6285,
      "reign": 6286,
      "##ctions": 6287,
      "true": 6288,
      "scoring": 6289,
      "dism": 6290,
      "writers": 6291,
      "founded": 6292,
      "##ype": 6293,
      "older": 6294,
      "51": 6295,
      "hun": 6296,
      "overs": 6297,
      "##oh": 6298,
      "##ider": 6299,
      "managed": 6300,
      "encoun": 6301,
      "##BS": 6302,
      "##ette": 6303,
      "##use": 6304,
      "disease": 6305,
      "##mann": 6306,
      "1986": 6307,
      "strength": 6308,
      "43": 6309,
      "Bost": 6310,
      "wear": 6311,
      "##gian": 6312,
      "##olk": 6313,
      "featuring": 6314,
      "greatest": 6315,
      "genus": 6316,
      "activity": 6317,
      "2nd": 6318,
      "##yph": 6319,
      "##istry": 6320,
      "##ighter": 6321,
      "1940": 6322,
      "Clark": 6323,
      "attempts": 6324,
      "peaked": 6325,
      "Because": 6326,
      "Gro": 6327,
      "Tem": 6328,
      "fear": 6329,
      "oil": 6330,
      "##ini": 6331,
      "condom": 6332,
      "ang": 6333,
      "environment": 6334,
      "showed": 6335,
      "controvers": 6336,
      "multiple": 6337,
      "Manc": 6338,
      "rough": 6339,
      "##aise": 6340,
      "exhib": 6341,
      "train": 6342,
      "residents": 6343,
      "coach": 6344,
      "square": 6345,
      "##ieutenant": 6346,
      "Ho": 6347,
      "era": 6348,
      "sn": 6349,
      "##inus": 6350,
      "today": 6351,
      "##ighth": 6352,
      "##ips": 6353,
      "##overs": 6354,
      "distance": 6355,
      "behav": 6356,
      "federal": 6357,
      "Empire": 6358,
      "dut": 6359,
      "words": 6360,
      "##II": 6361,
      "compr": 6362,
      "completely": 6363,
      "promoted": 6364,
      "Av": 6365,
      "Greek": 6366,
      "Sal": 6367,
      "Sum": 6368,
      "dire": 6369,
      "##ez": 6370,
      "##ridge": 6371,
      "##onent": 6372,
      "instit": 6373,
      "efforts": 6374,
      "trial": 6375,
      "Museum": 6376,
      "journal": 6377,
      "##writ": 6378,
      "##arp": 6379,
      "background": 6380,
      "campus": 6381,
      "McCain": 6382,
      "Oliv": 6383,
      "slightly": 6384,
      "55": 6385,
      "Civil": 6386,
      "Whe": 6387,
      "Way": 6388,
      "du": 6389,
      "er": 6390,
      "iron": 6391,
      "mem": 6392,
      "appar": 6393,
      "Class": 6394,
      "opportun": 6395,
      "52": 6396,
      "Lu": 6397,
      "inh": 6398,
      "##isation": 6399,
      "conver": 6400,
      "univers": 6401,
      "interact": 6402,
      "1970": 6403,
      "concert": 6404,
      "deliv": 6405,
      "46": 6406,
      "Land": 6407,
      "Nic": 6408,
      "Sil": 6409,
      "crow": 6410,
      "##acts": 6411,
      "Carl": 6412,
      "repe": 6413,
      "becomes": 6414,
      "Soviet": 6415,
      "Light": 6416,
      "wing": 6417,
      "wild": 6418,
      "##cing": 6419,
      "##uous": 6420,
      "##iated": 6421,
      "##án": 6422,
      "##BA": 6423,
      "##roll": 6424,
      "##ires": 6425,
      "earth": 6426,
      "1990": 6427,
      "positions": 6428,
      "amb": 6429,
      "approach": 6430,
      "Orig": 6431,
      "northeast": 6432,
      "Federer": 6433,
      "wit": 6434,
      "share": 6435,
      "displ": 6436,
      "Prince": 6437,
      "Brad": 6438,
      "Week": 6439,
      "##ceeded": 6440,
      "kilomet": 6441,
      "paper": 6442,
      "##com": 6443,
      "##mond": 6444,
      "Americans": 6445,
      "continues": 6446,
      "Commission": 6447,
      "officials": 6448,
      "sequence": 6449,
      "Boston": 6450,
      "thous": 6451,
      "ability": 6452,
      "##ounded": 6453,
      "plays": 6454,
      "Society": 6455,
      "Kenn": 6456,
      "dog": 6457,
      "ple": 6458,
      "##ris": 6459,
      "##add": 6460,
      "##odia": 6461,
      "spread": 6462,
      "offer": 6463,
      "mainly": 6464,
      "matter": 6465,
      "producers": 6466,
      "potential": 6467,
      "Home": 6468,
      "hair": 6469,
      "alone": 6470,
      "spring": 6471,
      "##ansion": 6472,
      "titled": 6473,
      "edition": 6474,
      "archae": 6475,
      "FI": 6476,
      "Water": 6477,
      "girl": 6478,
      "nin": 6479,
      "native": 6480,
      "vess": 6481,
      "##arian": 6482,
      "forest": 6483,
      "interp": 6484,
      "1945": 6485,
      "sky": 6486,
      "##shire": 6487,
      "strugg": 6488,
      "contrast": 6489,
      "Catholic": 6490,
      "financial": 6491,
      "Ross": 6492,
      "cases": 6493,
      "pun": 6494,
      "##ugh": 6495,
      "##ental": 6496,
      "##utions": 6497,
      "Though": 6498,
      "actor": 6499,
      "resulting": 6500,
      "value": 6501,
      "Sar": 6502,
      "stone": 6503,
      "content": 6504,
      "##perial": 6505,
      "News": 6506,
      "owned": 6507,
      "promotion": 6508,
      "editor": 6509,
      "silver": 6510,
      "cyclone": 6511,
      "murder": 6512,
      "Mos": 6513,
      "hospital": 6514,
      "##bed": 6515,
      "thir": 6516,
      "##estic": 6517,
      "##ishop": 6518,
      "winter": 6519,
      "waters": 6520,
      "newspaper": 6521,
      "Win": 6522,
      "##adel": 6523,
      "##aine": 6524,
      "reception": 6525,
      "##ledge": 6526,
      "expected": 6527,
      "Conference": 6528,
      "animals": 6529,
      "Ott": 6530,
      "maximum": 6531,
      "Pennsylvania": 6532,
      "95": 6533,
      "fa": 6534,
      "mess": 6535,
      "##house": 6536,
      "enemy": 6537,
      "relatively": 6538,
      "exped": 6539,
      "elev": 6540,
      "contemporary": 6541,
      "companies": 6542,
      "symbol": 6543,
      "Manchester": 6544,
      "Ka": 6545,
      "Rose": 6546,
      "mel": 6547,
      "task": 6548,
      "ver": 6549,
      "##known": 6550,
      "##TV": 6551,
      "proved": 6552,
      "peace": 6553,
      "transl": 6554,
      "tried": 6555,
      "visual": 6556,
      "Six": 6557,
      "border": 6558,
      "fast": 6559,
      "ge": 6560,
      "##RA": 6561,
      "##arch": 6562,
      "spl": 6563,
      "imag": 6564,
      "brown": 6565,
      "legal": 6566,
      "direction": 6567,
      "batter": 6568,
      "tur": 6569,
      "reports": 6570,
      "color": 6571,
      "alongside": 6572,
      "Before": 6573,
      "innings": 6574,
      "adopted": 6575,
      "wolves": 6576,
      "##rance": 6577,
      "inch": 6578,
      "##room": 6579,
      "##umber": 6580,
      "seasons": 6581,
      "suppl": 6582,
      "broke": 6583,
      "activities": 6584,
      "Histor": 6585,
      "Max": 6586,
      "Tropical": 6587,
      "paid": 6588,
      "royal": 6589,
      "##adium": 6590,
      "onto": 6591,
      "beat": 6592,
      "pros": 6593,
      "##ocks": 6594,
      "Anderson": 6595,
      "##while": 6596,
      "mechan": 6597,
      "sense": 6598,
      "##nest": 6599,
      "stations": 6600,
      "contact": 6601,
      "follows": 6602,
      "##ologist": 6603,
      "respond": 6604,
      "advant": 6605,
      "Paris": 6606,
      "Polish": 6607,
      "encour": 6608,
      "Holly": 6609,
      "##ibrary": 6610,
      "Fleet": 6611,
      "Middle": 6612,
      "Rom": 6613,
      "Tw": 6614,
      "cit": 6615,
      "grew": 6616,
      "##ctor": 6617,
      "##ourney": 6618,
      "recent": 6619,
      "weight": 6620,
      "doing": 6621,
      "Colon": 6622,
      "ancient": 6623,
      "Fair": 6624,
      "Live": 6625,
      "Liver": 6626,
      "Lady": 6627,
      "Tri": 6628,
      "Us": 6629,
      "Writ": 6630,
      "##achel": 6631,
      "##acks": 6632,
      "1942": 6633,
      "Chris": 6634,
      "sixth": 6635,
      "incorpor": 6636,
      "Mod": 6637,
      "sac": 6638,
      "##hi": 6639,
      "toward": 6640,
      "height": 6641,
      "weaken": 6642,
      "defense": 6643,
      "1980s": 6644,
      "sources": 6645,
      "Captain": 6646,
      "Line": 6647,
      "raid": 6648,
      "sal": 6649,
      "##iring": 6650,
      "##iance": 6651,
      "specim": 6652,
      "primarily": 6653,
      "argued": 6654,
      "property": 6655,
      "physical": 6656,
      "homes": 6657,
      "heavily": 6658,
      "Beyonc": 6659,
      "Beyoncé": 6660,
      "Direct": 6661,
      "rating": 6662,
      "##bury": 6663,
      "##ompl": 6664,
      "##rol": 6665,
      "attend": 6666,
      "workers": 6667,
      "progress": 6668,
      "criticized": 6669,
      "divided": 6670,
      "condition": 6671,
      "strike": 6672,
      "Bois": 6673,
      "expressed": 6674,
      "65": 6675,
      "Of": 6676,
      "Ret": 6677,
      "hers": 6678,
      "kick": 6679,
      "##eption": 6680,
      "##ares": 6681,
      "suc": 6682,
      "sust": 6683,
      "Albert": 6684,
      "student": 6685,
      "##onym": 6686,
      "represented": 6687,
      "##ricket": 6688,
      "couple": 6689,
      "figures": 6690,
      "nuclear": 6691,
      "Lewis": 6692,
      "Liverpool": 6693,
      "Pit": 6694,
      "ir": 6695,
      "##ban": 6696,
      "##apore": 6697,
      "Heb": 6698,
      "graph": 6699,
      "##ancy": 6700,
      "describes": 6701,
      "headquarters": 6702,
      "Guitar": 6703,
      "influenced": 6704,
      "doub": 6705,
      "Singapore": 6706,
      "Fin": 6707,
      "mind": 6708,
      "rule": 6709,
      "chosen": 6710,
      "##ella": 6711,
      "##ogue": 6712,
      "adj": 6713,
      "##izes": 6714,
      "operated": 6715,
      "##oof": 6716,
      "trees": 6717,
      "flying": 6718,
      "withdraw": 6719,
      "Jon": 6720,
      "sides": 6721,
      "##right": 6722,
      "##aming": 6723,
      "##ricult": 6724,
      "Spec": 6725,
      "Minister": 6726,
      "Young": 6727,
      "Run": 6728,
      "gained": 6729,
      "lives": 6730,
      "##ien": 6731,
      "##uses": 6732,
      "1987": 6733,
      "1944": 6734,
      "Commun": 6735,
      "possibly": 6736,
      "eye": 6737,
      "bodies": 6738,
      "##war": 6739,
      "Att": 6740,
      "officially": 6741,
      "explained": 6742,
      "negative": 6743,
      "Upon": 6744,
      "3rd": 6745,
      "Lo": 6746,
      "Like": 6747,
      "Tod": 6748,
      "narrow": 6749,
      "##rane": 6750,
      "step": 6751,
      "##eller": 6752,
      "##gend": 6753,
      "weather": 6754,
      "defend": 6755,
      "1960s": 6756,
      "causing": 6757,
      "authority": 6758,
      "letters": 6759,
      "##lsen": 6760,
      "honor": 6761,
      "Senate": 6762,
      "Jeff": 6763,
      "Jones": 6764,
      "throw": 6765,
      "stay": 6766,
      "##ager": 6767,
      "##rug": 6768,
      "aired": 6769,
      "collabor": 6770,
      "Government": 6771,
      "Jewish": 6772,
      "conflict": 6773,
      "Infantry": 6774,
      "Mean": 6775,
      "rare": 6776,
      "roles": 6777,
      "##ications": 6778,
      "##etts": 6779,
      "##eman": 6780,
      "##essions": 6781,
      "##ipment": 6782,
      "cannot": 6783,
      "1980": 6784,
      "Bridge": 6785,
      "150": 6786,
      "Columb": 6787,
      "humans": 6788,
      "Moore": 6789,
      "Hawai": 6790,
      "Mul": 6791,
      "rang": 6792,
      "says": 6793,
      "##enture": 6794,
      "##enden": 6795,
      "Carlsen": 6796,
      "Hebrew": 6797,
      "94": 6798,
      "Ram": 6799,
      "cells": 6800,
      "ps": 6801,
      "tall": 6802,
      "##ufact": 6803,
      "##ón": 6804,
      "attrib": 6805,
      "extra": 6806,
      "advance": 6807,
      "##heless": 6808,
      "soundtrack": 6809,
      "combined": 6810,
      "piece": 6811,
      "Coll": 6812,
      "Den": 6813,
      "Spr": 6814,
      "tun": 6815,
      "your": 6816,
      "##burg": 6817,
      "Committee": 6818,
      "solo": 6819,
      "management": 6820,
      "Victoria": 6821,
      "76": 6822,
      "BBC": 6823,
      "cust": 6824,
      "hip": 6825,
      "sought": 6826,
      "vo": 6827,
      "wolf": 6828,
      "##bur": 6829,
      "##heim": 6830,
      "Storm": 6831,
      "spot": 6832,
      "shortly": 6833,
      "twice": 6834,
      "growth": 6835,
      "independent": 6836,
      "categ": 6837,
      "say": 6838,
      "##uate": 6839,
      "##uge": 6840,
      "##tation": 6841,
      "##ding": 6842,
      "##break": 6843,
      "scale": 6844,
      "shell": 6845,
      "feed": 6846,
      "Ash": 6847,
      "maintained": 6848,
      "##venue": 6849,
      "authorities": 6850,
      "##emorial": 6851,
      "mentioned": 6852,
      "Sat": 6853,
      "Wels": 6854,
      "##zep": 6855,
      "##iral": 6856,
      "street": 6857,
      "reaching": 6858,
      "##ushed": 6859,
      "##illery": 6860,
      "armed": 6861,
      "image": 6862,
      "emph": 6863,
      "Command": 6864,
      "problem": 6865,
      "Addition": 6866,
      "56": 6867,
      "Good": 6868,
      "Ten": 6869,
      "##ram": 6870,
      "##itian": 6871,
      "##iced": 6872,
      "alt": 6873,
      "1939": 6874,
      "survey": 6875,
      "growing": 6876,
      "injury": 6877,
      "individuals": 6878,
      "sexual": 6879,
      "Joseph": 6880,
      "64": 6881,
      "naval": 6882,
      "pal": 6883,
      "stra": 6884,
      "##hedral": 6885,
      "resc": 6886,
      "webs": 6887,
      "Short": 6888,
      "##aniel": 6889,
      "ultimately": 6890,
      "Ry": 6891,
      "laid": 6892,
      "unknown": 6893,
      "impress": 6894,
      "Once": 6895,
      "##athan": 6896,
      "albums": 6897,
      "versions": 6898,
      "Christmas": 6899,
      "propos": 6900,
      "reinfor": 6901,
      "herself": 6902,
      "Bol": 6903,
      "Four": 6904,
      "Kn": 6905,
      "mol": 6906,
      "sle": 6907,
      "##ners": 6908,
      "##ply": 6909,
      "contain": 6910,
      "unique": 6911,
      "sets": 6912,
      "concent": 6913,
      "artists": 6914,
      "visited": 6915,
      "require": 6916,
      "portion": 6917,
      "avoid": 6918,
      "achieved": 6919,
      "Dest": 6920,
      "Nations": 6921,
      "Nash": 6922,
      "bit": 6923,
      "kg": 6924,
      "tail": 6925,
      "##can": 6926,
      "##omer": 6927,
      "##igg": 6928,
      "comedy": 6929,
      "exec": 6930,
      "Scient": 6931,
      "pattern": 6932,
      "Scotland": 6933,
      "crowd": 6934,
      "Welsh": 6935,
      "Are": 6936,
      "Form": 6937,
      "Ly": 6938,
      "Pop": 6939,
      "##wide": 6940,
      "##ola": 6941,
      "##ulate": 6942,
      "##rier": 6943,
      "seg": 6944,
      "Chap": 6945,
      "advert": 6946,
      "retired": 6947,
      "##phia": 6948,
      "1989": 6949,
      "magn": 6950,
      "nominated": 6951,
      "surrounding": 6952,
      "premi": 6953,
      "##adelphia": 6954,
      "66": 6955,
      "600": 6956,
      "Mel": 6957,
      "sout": 6958,
      "##fort": 6959,
      "##eno": 6960,
      "##olved": 6961,
      "results": 6962,
      "news": 6963,
      "Reception": 6964,
      "commonly": 6965,
      "planet": 6966,
      "Oldham": 6967,
      "Avenue": 6968,
      "Lar": 6969,
      "ast": 6970,
      "ahead": 6971,
      "##lers": 6972,
      "##ura": 6973,
      "##ivity": 6974,
      "bey": 6975,
      "##anda": 6976,
      "##appen": 6977,
      "seek": 6978,
      "places": 6979,
      "actress": 6980,
      "grass": 6981,
      "syn": 6982,
      "1985": 6983,
      "returning": 6984,
      "hyd": 6985,
      "##yphoon": 6986,
      "MD": 6987,
      "Ocean": 6988,
      "Public": 6989,
      "fully": 6990,
      "##iate": 6991,
      "##gent": 6992,
      "integ": 6993,
      "consisted": 6994,
      "remark": 6995,
      "basis": 6996,
      "Spain": 6997,
      "Conf": 6998,
      "identified": 6999,
      "regarded": 7000,
      "beyond": 7001,
      "Tenn": 7002,
      "Tint": 7003,
      "mic": 7004,
      "risk": 7005,
      "##upp": 7006,
      "##eley": 7007,
      "##etball": 7008,
      "coming": 7009,
      "Newton": 7010,
      "granted": 7011,
      "receive": 7012,
      "leaders": 7013,
      "##iami": 7014,
      "simply": 7015,
      "##resp": 7016,
      "titles": 7017,
      "moment": 7018,
      "Turner": 7019,
      "Field": 7020,
      "piano": 7021,
      "tells": 7022,
      "##aver": 7023,
      "##acement": 7024,
      "1988": 7025,
      "Engine": 7026,
      "types": 7027,
      "claims": 7028,
      "affected": 7029,
      "Philadelphia": 7030,
      "mountain": 7031,
      "illust": 7032,
      "frequently": 7033,
      "machine": 7034,
      "challeng": 7035,
      "torpedo": 7036,
      "53": 7037,
      "ox": 7038,
      "ut": 7039,
      "##ansas": 7040,
      "##azz": 7041,
      "element": 7042,
      "debuted": 7043,
      "##bridge": 7044,
      "necessary": 7045,
      "Tintin": 7046,
      "Miami": 7047,
      "master": 7048,
      "##eed": 7049,
      "Chief": 7050,
      "contained": 7051,
      "relief": 7052,
      "compos": 7053,
      "##orship": 7054,
      "charge": 7055,
      "##ifications": 7056,
      "Airport": 7057,
      "dropped": 7058,
      "schedul": 7059,
      "Cub": 7060,
      "Det": 7061,
      "FA": 7062,
      "##icient": 7063,
      "manufact": 7064,
      "passeng": 7065,
      "northwest": 7066,
      "opin": 7067,
      "Olivier": 7068,
      "advantage": 7069,
      "Bra": 7070,
      "Fox": 7071,
      "Hung": 7072,
      "core": 7073,
      "fle": 7074,
      "mis": 7075,
      "swe": 7076,
      "##icts": 7077,
      "comes": 7078,
      "contest": 7079,
      "1990s": 7080,
      "1964": 7081,
      "college": 7082,
      "equipment": 7083,
      "treatment": 7084,
      "Dam": 7085,
      "Ox": 7086,
      "Ros": 7087,
      "pict": 7088,
      "##iot": 7089,
      "##umes": 7090,
      "sport": 7091,
      "sports": 7092,
      "adapt": 7093,
      "appeal": 7094,
      "##icks": 7095,
      "prominent": 7096,
      "organization": 7097,
      "breeding": 7098,
      "Entertainment": 7099,
      "Ari": 7100,
      "Bor": 7101,
      "Dutch": 7102,
      "Norm": 7103,
      "draft": 7104,
      "rhy": 7105,
      "wick": 7106,
      "##ients": 7107,
      "spect": 7108,
      "drama": 7109,
      "broken": 7110,
      "belong": 7111,
      "##appy": 7112,
      "capture": 7113,
      "Review": 7114,
      "nucle": 7115,
      "Fam": 7116,
      "rival": 7117,
      "##igr": 7118,
      "Stone": 7119,
      "opposed": 7120,
      "Charl": 7121,
      "historian": 7122,
      "recognized": 7123,
      "Background": 7124,
      "Dougl": 7125,
      "confirmed": 7126,
      "Jane": 7127,
      "Rap": 7128,
      "##haps": 7129,
      "##ils": 7130,
      "executive": 7131,
      "##attle": 7132,
      "Scully": 7133,
      "serving": 7134,
      "believe": 7135,
      "speak": 7136,
      "looking": 7137,
      "subsequent": 7138,
      "measure": 7139,
      "emphas": 7140,
      "54": 7141,
      "Each": 7142,
      "drug": 7143,
      "fix": 7144,
      "nest": 7145,
      "yellow": 7146,
      "rejected": 7147,
      "##uls": 7148,
      "##unction": 7149,
      "##opp": 7150,
      "##ables": 7151,
      "##antly": 7152,
      "containing": 7153,
      "##duction": 7154,
      "newly": 7155,
      "themes": 7156,
      "formation": 7157,
      "county": 7158,
      "convers": 7159,
      "Williams": 7160,
      "structures": 7161,
      "participated": 7162,
      "pieces": 7163,
      "Van": 7164,
      "bott": 7165,
      "here": 7166,
      "mile": 7167,
      "##wick": 7168,
      "##oma": 7169,
      "##agn": 7170,
      "chose": 7171,
      "movie": 7172,
      "Guard": 7173,
      "cultural": 7174,
      "economic": 7175,
      "senior": 7176,
      "Gord": 7177,
      "Wild": 7178,
      "gas": 7179,
      "pitch": 7180,
      "rom": 7181,
      "roll": 7182,
      "##lav": 7183,
      "##ala": 7184,
      "foreign": 7185,
      "Child": 7186,
      "##ampion": 7187,
      "##ocked": 7188,
      "filmed": 7189,
      "dedicated": 7190,
      "Ap": 7191,
      "DNA": 7192,
      "Po": 7193,
      "sail": 7194,
      "##uzz": 7195,
      "##aud": 7196,
      "##lines": 7197,
      "##za": 7198,
      "##itan": 7199,
      "##agement": 7200,
      "Coast": 7201,
      "Valley": 7202,
      "pilot": 7203,
      "Di": 7204,
      "End": 7205,
      "awards": 7206,
      "gather": 7207,
      "motion": 7208,
      "##orus": 7209,
      "##lying": 7210,
      "arms": 7211,
      "neut": 7212,
      "##awa": 7213,
      "accident": 7214,
      "creation": 7215,
      "governor": 7216,
      "Andrew": 7217,
      "freeway": 7218,
      "Portug": 7219,
      "degree": 7220,
      "Meanwhile": 7221,
      "Bre": 7222,
      "Kore": 7223,
      "selling": 7224,
      "##iy": 7225,
      "##ić": 7226,
      "theory": 7227,
      "##ifying": 7228,
      "##iana": 7229,
      "serve": 7230,
      "defin": 7231,
      "elim": 7232,
      "orders": 7233,
      "literature": 7234,
      "abandoned": 7235,
      "81": 7236,
      "Even": 7237,
      "Hy": 7238,
      "Jam": 7239,
      "pan": 7240,
      "##ux": 7241,
      "##isters": 7242,
      "##utation": 7243,
      "##ova": 7244,
      "18th": 7245,
      "perman": 7246,
      "seconds": 7247,
      "surre": 7248,
      "lands": 7249,
      "Conn": 7250,
      "programs": 7251,
      "Studios": 7252,
      "citiz": 7253,
      "Lev": 7254,
      "Mat": 7255,
      "Sud": 7256,
      "losing": 7257,
      "##eton": 7258,
      "##agle": 7259,
      "Ste": 7260,
      "##orney": 7261,
      "request": 7262,
      "suggests": 7263,
      "Wheeler": 7264,
      "Douglas": 7265,
      "800": 7266,
      "Luc": 7267,
      "Men": 7268,
      "Rachel": 7269,
      "green": 7270,
      "load": 7271,
      "wor": 7272,
      "Inst": 7273,
      "weak": 7274,
      "floor": 7275,
      "consecutive": 7276,
      "singing": 7277,
      "##engt": 7278,
      "Barb": 7279,
      "reference": 7280,
      "document": 7281,
      "determined": 7282,
      "target": 7283,
      "Mas": 7284,
      "Roll": 7285,
      "powers": 7286,
      "sun": 7287,
      "##rid": 7288,
      "##rons": 7289,
      "##SB": 7290,
      "##asts": 7291,
      "##ava": 7292,
      "##raham": 7293,
      "acad": 7294,
      "defined": 7295,
      "1970s": 7296,
      "1968": 7297,
      "extensive": 7298,
      "Assembly": 7299,
      "Roberts": 7300,
      "summ": 7301,
      "label": 7302,
      "Board": 7303,
      "Eastern": 7304,
      "HMS": 7305,
      "Life": 7306,
      "Mike": 7307,
      "Wolf": 7308,
      "cities": 7309,
      "dyn": 7310,
      "males": 7311,
      "##isers": 7312,
      "projects": 7313,
      "Album": 7314,
      "prefer": 7315,
      "baseball": 7316,
      "therefore": 7317,
      "setting": 7318,
      "expansion": 7319,
      "simple": 7320,
      "landing": 7321,
      "##ographer": 7322,
      "eyes": 7323,
      "platform": 7324,
      "bed": 7325,
      "##hou": 7326,
      "##ilies": 7327,
      "conqu": 7328,
      "##ocated": 7329,
      "recently": 7330,
      "incident": 7331,
      "##ube": 7332,
      "compar": 7333,
      "singles": 7334,
      "passing": 7335,
      "medical": 7336,
      "calc": 7337,
      "Croatia": 7338,
      "District": 7339,
      "72": 7340,
      "Dun": 7341,
      "faced": 7342,
      "hor": 7343,
      "mist": 7344,
      "##pass": 7345,
      "beaut": 7346,
      "##illing": 7347,
      "leaves": 7348,
      "Italy": 7349,
      "ends": 7350,
      "assault": 7351,
      "120": 7352,
      "publication": 7353,
      "castle": 7354,
      "rainfall": 7355,
      "##osaurus": 7356,
      "straight": 7357,
      "Jin": 7358,
      "Prem": 7359,
      "root": 7360,
      "##orter": 7361,
      "##ishes": 7362,
      "##iva": 7363,
      "rear": 7364,
      "perfect": 7365,
      "severe": 7366,
      "branch": 7367,
      "##ancing": 7368,
      "Project": 7369,
      "Medal": 7370,
      "Matthew": 7371,
      "73": 7372,
      "Further": 7373,
      "lb": 7374,
      "##oen": 7375,
      "##ersey": 7376,
      "deploy": 7377,
      "choice": 7378,
      "didn": 7379,
      "##ashion": 7380,
      "expanded": 7381,
      "explos": 7382,
      "Revolution": 7383,
      "flags": 7384,
      "Somers": 7385,
      "agreement": 7386,
      "Summer": 7387,
      "Night": 7388,
      "Nev": 7389,
      "NBA": 7390,
      "Sus": 7391,
      "Sund": 7392,
      "Ye": 7393,
      "opt": 7394,
      "##rain": 7395,
      "##iences": 7396,
      "##laim": 7397,
      "##lusion": 7398,
      "##inity": 7399,
      "shall": 7400,
      "##ilding": 7401,
      "##fully": 7402,
      "guest": 7403,
      "oldest": 7404,
      "starts": 7405,
      "negot": 7406,
      "Francisc": 7407,
      "intensity": 7408,
      "safety": 7409,
      "touchdown": 7410,
      "Admiral": 7411,
      "##elopment": 7412,
      "casual": 7413,
      "Bund": 7414,
      "Sub": 7415,
      "##ker": 7416,
      "Inn": 7417,
      "Institute": 7418,
      "excl": 7419,
      "1918": 7420,
      "guard": 7421,
      "##ographic": 7422,
      "System": 7423,
      "Gordon": 7424,
      "##engthen": 7425,
      "97": 7426,
      "Wind": 7427,
      "aid": 7428,
      "tank": 7429,
      "##pson": 7430,
      "##ga": 7431,
      "##era": 7432,
      "##elve": 7433,
      "chair": 7434,
      "actors": 7435,
      "178": 7436,
      "emotion": 7437,
      "organized": 7438,
      "effective": 7439,
      "females": 7440,
      "council": 7441,
      "controlled": 7442,
      "website": 7443,
      "85": 7444,
      "eas": 7445,
      "ice": 7446,
      "salt": 7447,
      "##stream": 7448,
      "##ixon": 7449,
      "1960": 7450,
      "famous": 7451,
      "arrival": 7452,
      "accompan": 7453,
      "weapons": 7454,
      "4th": 7455,
      "700": 7456,
      "Bart": 7457,
      "pet": 7458,
      "sens": 7459,
      "##pton": 7460,
      "resist": 7461,
      "Mario": 7462,
      "1914": 7463,
      "fellow": 7464,
      "purchased": 7465,
      "Somerset": 7466,
      "62": 7467,
      "ERA": 7468,
      "Open": 7469,
      "Ped": 7470,
      "##itable": 7471,
      "send": 7472,
      "shape": 7473,
      "try": 7474,
      "##ika": 7475,
      "Press": 7476,
      "sites": 7477,
      "creating": 7478,
      "existing": 7479,
      "Governor": 7480,
      "increasingly": 7481,
      "Rh": 7482,
      "bud": 7483,
      "mob": 7484,
      "##olid": 7485,
      "fresh": 7486,
      "What": 7487,
      "parall": 7488,
      "##isms": 7489,
      "ideas": 7490,
      "killing": 7491,
      "electric": 7492,
      "Democr": 7493,
      "Die": 7494,
      "Gall": 7495,
      "Hard": 7496,
      "Jud": 7497,
      "camer": 7498,
      "fired": 7499,
      "tend": 7500,
      "##inem": 7501,
      "##ugos": 7502,
      "1969": 7503,
      "artillery": 7504,
      "belief": 7505,
      "entirely": 7506,
      "96": 7507,
      "Cat": 7508,
      "dim": 7509,
      "labor": 7510,
      "wounded": 7511,
      "##erc": 7512,
      "##stone": 7513,
      "##acity": 7514,
      "##unte": 7515,
      "1943": 7516,
      "1946": 7517,
      "animal": 7518,
      "gods": 7519,
      "##enzodia": 7520,
      "Honor": 7521,
      "##enzodiazep": 7522,
      "Due": 7523,
      "Ell": 7524,
      "gives": 7525,
      "##ía": 7526,
      "##standing": 7527,
      "##imal": 7528,
      "Head": 7529,
      "unus": 7530,
      "address": 7531,
      "1972": 7532,
      "1916": 7533,
      "Common": 7534,
      "declined": 7535,
      "buried": 7536,
      "acquired": 7537,
      "flooding": 7538,
      "intellig": 7539,
      "bacteria": 7540,
      "More": 7541,
      "Ra": 7542,
      "Ut": 7543,
      "##hm": 7544,
      "##irls": 7545,
      "answ": 7546,
      "computer": 7547,
      "filming": 7548,
      "Show": 7549,
      "column": 7550,
      "Broad": 7551,
      "towns": 7552,
      "technology": 7553,
      "favour": 7554,
      "knowledge": 7555,
      "billion": 7556,
      "molec": 7557,
      "dance": 7558,
      "##een": 7559,
      "##apers": 7560,
      "1984": 7561,
      "invasion": 7562,
      "captain": 7563,
      "Production": 7564,
      "battalion": 7565,
      "Among": 7566,
      "learn": 7567,
      "Team": 7568,
      "Michel": 7569,
      "policy": 7570,
      "seventh": 7571,
      "ceremony": 7572,
      "57": 7573,
      "Bern": 7574,
      "Mov": 7575,
      "Oh": 7576,
      "fair": 7577,
      "trou": 7578,
      "##iable": 7579,
      "##lim": 7580,
      "##andy": 7581,
      "plants": 7582,
      "trying": 7583,
      "agricult": 7584,
      "1974": 7585,
      "entrance": 7586,
      "corresp": 7587,
      "earliest": 7588,
      "commissioned": 7589,
      "briefly": 7590,
      "Olympic": 7591,
      "domestic": 7592,
      "article": 7593,
      "Burn": 7594,
      "NC": 7595,
      "Top": 7596,
      "Villa": 7597,
      "happen": 7598,
      "journey": 7599,
      "von": 7600,
      "##eral": 7601,
      "plas": 7602,
      "nothing": 7603,
      "hero": 7604,
      "unp": 7605,
      "centuries": 7606,
      "surpr": 7607,
      "laws": 7608,
      "Swed": 7609,
      "Steve": 7610,
      "dismiss": 7611,
      "repeated": 7612,
      "witness": 7613,
      "psych": 7614,
      "61": 7615,
      "Cer": 7616,
      "Sound": 7617,
      "Tim": 7618,
      "Ven": 7619,
      "rise": 7620,
      "save": 7621,
      "##chest": 7622,
      "##met": 7623,
      "##more": 7624,
      "conce": 7625,
      "fruit": 7626,
      "deck": 7627,
      "district": 7628,
      "viewed": 7629,
      "purpose": 7630,
      "Between": 7631,
      "##ugoslav": 7632,
      "5th": 7633,
      "Jac": 7634,
      "Ro": 7635,
      "drop": 7636,
      "mouth": 7637,
      "rar": 7638,
      "##ua": 7639,
      "##tenden": 7640,
      "##rot": 7641,
      "Theatre": 7642,
      "##avel": 7643,
      "##unicip": 7644,
      "##ibl": 7645,
      "bask": 7646,
      "drive": 7647,
      "Independ": 7648,
      "anything": 7649,
      "1915": 7650,
      "Prot": 7651,
      "collected": 7652,
      "systems": 7653,
      "finds": 7654,
      "closely": 7655,
      "Crittenden": 7656,
      "contributed": 7657,
      "pitched": 7658,
      "Russian": 7659,
      "proteins": 7660,
      "faith": 7661,
      "Galv": 7662,
      "Les": 7663,
      "hits": 7664,
      "##thur": 7665,
      "##rif": 7666,
      "seems": 7667,
      "Also": 7668,
      "##ockey": 7669,
      "acid": 7670,
      "writes": 7671,
      "museum": 7672,
      "parliament": 7673,
      "distingu": 7674,
      "advanced": 7675,
      "prompt": 7676,
      "younger": 7677,
      "boat": 7678,
      "##chers": 7679,
      "experienced": 7680,
      "AI": 7681,
      "Bon": 7682,
      "Dj": 7683,
      "Fle": 7684,
      "Festival": 7685,
      "gain": 7686,
      "wr": 7687,
      "##pread": 7688,
      "##mission": 7689,
      "##ici": 7690,
      "thing": 7691,
      "##aved": 7692,
      "heard": 7693,
      "cancer": 7694,
      "Princ": 7695,
      "allows": 7696,
      "squadron": 7697,
      "boats": 7698,
      "Ottoman": 7699,
      "Mir": 7700,
      "Yugoslav": 7701,
      "cold": 7702,
      "wides": 7703,
      "##omew": 7704,
      "resemb": 7705,
      "security": 7706,
      "1965": 7707,
      "1956": 7708,
      "supporting": 7709,
      "Republican": 7710,
      "expedition": 7711,
      "Id": 7712,
      "fat": 7713,
      "##ca": 7714,
      "##Station": 7715,
      "##TC": 7716,
      "##nthes": 7717,
      "prin": 7718,
      "committee": 7719,
      "Mars": 7720,
      "calls": 7721,
      "defensive": 7722,
      "1976": 7723,
      "household": 7724,
      "##reme": 7725,
      "volume": 7726,
      "currently": 7727,
      "Montana": 7728,
      "analysis": 7729,
      "Vietnam": 7730,
      "Galveston": 7731,
      "Pen": 7732,
      "bass": 7733,
      "cited": 7734,
      "daily": 7735,
      "##bar": 7736,
      "##rell": 7737,
      "store": 7738,
      "stages": 7739,
      "##lder": 7740,
      "Stan": 7741,
      "Only": 7742,
      "1982": 7743,
      "1947": 7744,
      "families": 7745,
      "trip": 7746,
      "phil": 7747,
      "Minnes": 7748,
      "##intend": 7749,
      "escape": 7750,
      "PlayStation": 7751,
      "Radio": 7752,
      "Oxford": 7753,
      "Ur": 7754,
      "fought": 7755,
      "paint": 7756,
      "tree": 7757,
      "##like": 7758,
      "##asty": 7759,
      "regions": 7760,
      "177": 7761,
      "##gress": 7762,
      "populations": 7763,
      "goes": 7764,
      "edge": 7765,
      "mounted": 7766,
      "instrument": 7767,
      "scheduled": 7768,
      "budget": 7769,
      "Minnesota": 7770,
      "hall": 7771,
      "harm": 7772,
      "##vey": 7773,
      "##eck": 7774,
      "##erse": 7775,
      "conference": 7776,
      "##ifa": 7777,
      "##ieval": 7778,
      "##raf": 7779,
      "adult": 7780,
      "##izations": 7781,
      "prey": 7782,
      "retire": 7783,
      "1981": 7784,
      "description": 7785,
      "provides": 7786,
      "finish": 7787,
      "passes": 7788,
      "##scrap": 7789,
      "crime": 7790,
      "standing": 7791,
      "importance": 7792,
      "correct": 7793,
      "roughly": 7794,
      "71": 7795,
      "Brian": 7796,
      "egg": 7797,
      "tim": 7798,
      "vac": 7799,
      "##of": 7800,
      "##outs": 7801,
      "##bery": 7802,
      "secondary": 7803,
      "coal": 7804,
      "views": 7805,
      "settlement": 7806,
      "shooting": 7807,
      "administration": 7808,
      "Francisco": 7809,
      "Dor": 7810,
      "Kap": 7811,
      "Sev": 7812,
      "Wall": 7813,
      "ven": 7814,
      "wave": 7815,
      "isol": 7816,
      "notable": 7817,
      "Arts": 7818,
      "quite": 7819,
      "supern": 7820,
      "Missoul": 7821,
      "losses": 7822,
      "poetry": 7823,
      "failure": 7824,
      "Cold": 7825,
      "Lieutenant": 7826,
      "Nas": 7827,
      "Test": 7828,
      "##set": 7829,
      "##inate": 7830,
      "##onic": 7831,
      "##eless": 7832,
      "##ushing": 7833,
      "perhaps": 7834,
      "Alice": 7835,
      "supply": 7836,
      "1967": 7837,
      "worldwide": 7838,
      "Paraly": 7839,
      "improved": 7840,
      "occupied": 7841,
      "prepared": 7842,
      "scholars": 7843,
      "Domitian": 7844,
      "surrender": 7845,
      "Bundy": 7846,
      "Bonds": 7847,
      "Trib": 7848,
      "drew": 7849,
      "##ias": 7850,
      "##wen": 7851,
      "##kare": 7852,
      "##itled": 7853,
      "##ads": 7854,
      "##antic": 7855,
      "receiving": 7856,
      "dram": 7857,
      "protected": 7858,
      "Order": 7859,
      "Serb": 7860,
      "benef": 7861,
      "Paralymp": 7862,
      "Jes": 7863,
      "dated": 7864,
      "data": 7865,
      "fashion": 7866,
      "##hat": 7867,
      "##orial": 7868,
      "##ilton": 7869,
      "##iration": 7870,
      "##ayer": 7871,
      "##ules": 7872,
      "comic": 7873,
      "##abeth": 7874,
      "Stew": 7875,
      "1971": 7876,
      "finding": 7877,
      "Express": 7878,
      "launch": 7879,
      "regarding": 7880,
      "credited": 7881,
      "vehicles": 7882,
      "Secretary": 7883,
      "sustained": 7884,
      "Band": 7885,
      "Let": 7886,
      "Mid": 7887,
      "diam": 7888,
      "hired": 7889,
      "rac": 7890,
      "##eals": 7891,
      "##enon": 7892,
      "##asure": 7893,
      "seat": 7894,
      "Chart": 7895,
      "enl": 7896,
      "door": 7897,
      "##anny": 7898,
      "1919": 7899,
      "Phill": 7900,
      "products": 7901,
      "significantly": 7902,
      "drawn": 7903,
      "Stephen": 7904,
      "Scientology": 7905,
      "99": 7906,
      "Braz": 7907,
      "Fow": 7908,
      "Mey": 7909,
      "Vol": 7910,
      "##amm": 7911,
      "teacher": 7912,
      "Asia": 7913,
      "extr": 7914,
      "Phoen": 7915,
      "Eliz": 7916,
      "twelve": 7917,
      "missions": 7918,
      "learned": 7919,
      "Haifa": 7920,
      "temperature": 7921,
      "Operation": 7922,
      "kilometres": 7923,
      "Mulder": 7924,
      "widespread": 7925,
      "93": 7926,
      "Balt": 7927,
      "Hin": 7928,
      "bought": 7929,
      "filled": 7930,
      "##oe": 7931,
      "##rete": 7932,
      "##aman": 7933,
      "##iments": 7934,
      "offensive": 7935,
      "acres": 7936,
      "locations": 7937,
      "brigade": 7938,
      "1975": 7939,
      "Indust": 7940,
      "1953": 7941,
      "##poration": 7942,
      "1930": 7943,
      "Prov": 7944,
      "protect": 7945,
      "##idden": 7946,
      "Military": 7947,
      "##hetic": 7948,
      "Illino": 7949,
      "Colonel": 7950,
      "Ni": 7951,
      "##rations": 7952,
      "##iations": 7953,
      "##bon": 7954,
      "frag": 7955,
      "shaped": 7956,
      "##ipl": 7957,
      "Argent": 7958,
      "175": 7959,
      "160": 7960,
      "1979": 7961,
      "bands": 7962,
      "Scottish": 7963,
      "Disney": 7964,
      "correspond": 7965,
      "Missoula": 7966,
      "Budd": 7967,
      "Daniel": 7968,
      "ring": 7969,
      "##igation": 7970,
      "##owed": 7971,
      "unf": 7972,
      "overl": 7973,
      "medal": 7974,
      "producing": 7975,
      "About": 7976,
      "##aska": 7977,
      "Magazine": 7978,
      "Heart": 7979,
      "##burgh": 7980,
      "69": 7981,
      "Der": 7982,
      "Never": 7983,
      "Om": 7984,
      "Vill": 7985,
      "##GN": 7986,
      "##ownt": 7987,
      "##ansen": 7988,
      "descend": 7989,
      "consists": 7990,
      "gradually": 7991,
      "virt": 7992,
      "59": 7993,
      "Fri": 7994,
      "Horse": 7995,
      "Sky": 7996,
      "Yank": 7997,
      "dry": 7998,
      "##anas": 7999,
      "##irates": 8000,
      "##imony": 8001,
      "reform": 8002,
      "why": 8003,
      "proceed": 8004,
      "gameplay": 8005,
      "charts": 8006,
      "submar": 8007,
      "Joh": 8008,
      "depth": 8009,
      "details": 8010,
      "##ucky": 8011,
      "successfully": 8012,
      "##avalry": 8013,
      "Ernest": 8014,
      "denied": 8015,
      "rapidly": 8016,
      "Throughout": 8017,
      "Hollywood": 8018,
      "Fowler": 8019,
      "Pot": 8020,
      "poll": 8021,
      "rob": 8022,
      "torn": 8023,
      "##lam": 8024,
      "##oli": 8025,
      "product": 8026,
      "1973": 8027,
      "occurs": 8028,
      "McG": 8029,
      "roads": 8030,
      "facilities": 8031,
      "steel": 8032,
      "Every": 8033,
      "protein": 8034,
      "Nixon": 8035,
      "Video": 8036,
      "worth": 8037,
      "##wise": 8038,
      "##kan": 8039,
      "##inson": 8040,
      "##rel": 8041,
      "##imet": 8042,
      "images": 8043,
      "1948": 8044,
      "performing": 8045,
      "1977": 8046,
      "1950s": 8047,
      "restaur": 8048,
      "skin": 8049,
      "Andy": 8050,
      "Development": 8051,
      "Cambridge": 8052,
      "opportunity": 8053,
      "Kong": 8054,
      "Laur": 8055,
      "caught": 8056,
      "cricket": 8057,
      "mort": 8058,
      "pul": 8059,
      "##omar": 8060,
      "##rog": 8061,
      "##igration": 8062,
      "##iful": 8063,
      "##okes": 8064,
      "evac": 8065,
      "knots": 8066,
      "indicated": 8067,
      "176": 8068,
      "estate": 8069,
      "Beat": 8070,
      "phase": 8071,
      "engaged": 8072,
      "##urring": 8073,
      "speech": 8074,
      "temple": 8075,
      "selection": 8076,
      "connection": 8077,
      "battleships": 8078,
      "converted": 8079,
      "Today": 8080,
      "Additionally": 8081,
      "91": 8082,
      "Ak": 8083,
      "ign": 8084,
      "mart": 8085,
      "##var": 8086,
      "##worth": 8087,
      "shark": 8088,
      "note": 8089,
      "Alf": 8090,
      "Marsh": 8091,
      "km2": 8092,
      "protection": 8093,
      "criticism": 8094,
      "infantry": 8095,
      "admitted": 8096,
      "firm": 8097,
      "Garc": 8098,
      "Ryan": 8099,
      "Instead": 8100,
      "casualties": 8101,
      "accompanied": 8102,
      "aer": 8103,
      "##gest": 8104,
      "##inger": 8105,
      "##aba": 8106,
      "##antine": 8107,
      "adap": 8108,
      "decre": 8109,
      "capacity": 8110,
      "1950": 8111,
      "popularity": 8112,
      "focused": 8113,
      "skyscrap": 8114,
      "Brazil": 8115,
      "IGN": 8116,
      "Pan": 8117,
      "eighth": 8118,
      "somew": 8119,
      "tact": 8120,
      "##hol": 8121,
      "##organ": 8122,
      "##ingly": 8123,
      "exerc": 8124,
      "##ogen": 8125,
      "adding": 8126,
      "1957": 8127,
      "Elect": 8128,
      "reading": 8129,
      "glob": 8130,
      "Songs": 8131,
      "rebu": 8132,
      "Walter": 8133,
      "semi": 8134,
      "normal": 8135,
      "substant": 8136,
      "6th": 8137,
      "Horn": 8138,
      "Wat": 8139,
      "cad": 8140,
      "dial": 8141,
      "fur": 8142,
      "jump": 8143,
      "sand": 8144,
      "ways": 8145,
      "##matic": 8146,
      "##inor": 8147,
      "##onia": 8148,
      "##atops": 8149,
      "##entially": 8150,
      "##irt": 8151,
      "alle": 8152,
      "##osa": 8153,
      "##oster": 8154,
      "##eased": 8155,
      "1963": 8156,
      "1966": 8157,
      "reputation": 8158,
      "convention": 8159,
      "connected": 8160,
      "existence": 8161,
      "disappear": 8162,
      "Naz": 8163,
      "Person": 8164,
      "Rih": 8165,
      "dates": 8166,
      "fan": 8167,
      "fish": 8168,
      "nor": 8169,
      "pack": 8170,
      "##bl": 8171,
      "##yer": 8172,
      "##FA": 8173,
      "##osis": 8174,
      "spons": 8175,
      "airport": 8176,
      "1952": 8177,
      "Bros": 8178,
      "survived": 8179,
      "introduction": 8180,
      "urban": 8181,
      "exclus": 8182,
      "Illinois": 8183,
      "Ray": 8184,
      "WW": 8185,
      "##ycl": 8186,
      "theat": 8187,
      "##iling": 8188,
      "##usc": 8189,
      "Univers": 8190,
      "preced": 8191,
      "strengthen": 8192,
      "maintain": 8193,
      "everything": 8194,
      "posted": 8195,
      "technical": 8196,
      "Square": 8197,
      "##stitution": 8198,
      "employed": 8199,
      "stopped": 8200,
      "Offic": 8201,
      "consisting": 8202,
      "occasionally": 8203,
      "aspects": 8204,
      "Shortly": 8205,
      "lin": 8206,
      "##atures": 8207,
      "##isa": 8208,
      "channel": 8209,
      "##iants": 8210,
      "recru": 8211,
      "offers": 8212,
      "classified": 8213,
      "entry": 8214,
      "islands": 8215,
      "watched": 8216,
      "fictional": 8217,
      "exception": 8218,
      "delivered": 8219,
      "responded": 8220,
      "##onymous": 8221,
      "opinion": 8222,
      "Rihanna": 8223,
      "CD": 8224,
      "Jean": 8225,
      "Key": 8226,
      "fuel": 8227,
      "hyp": 8228,
      "outer": 8229,
      "wars": 8230,
      "##mosp": 8231,
      "##ár": 8232,
      "##uration": 8233,
      "##agan": 8234,
      "##abin": 8235,
      "intention": 8236,
      "##ender": 8237,
      "undert": 8238,
      "1917": 8239,
      "##quez": 8240,
      "confron": 8241,
      "Similar": 8242,
      "identity": 8243,
      "missing": 8244,
      "Imperial": 8245,
      "Wilhel": 8246,
      "Corn": 8247,
      "Rome": 8248,
      "Tra": 8249,
      "aim": 8250,
      "ritual": 8251,
      "##heastern": 8252,
      "##ati": 8253,
      "##ario": 8254,
      "##anth": 8255,
      "##elly": 8256,
      "Inc": 8257,
      "##sey": 8258,
      "noting": 8259,
      "Lee": 8260,
      "Forest": 8261,
      "providing": 8262,
      "deaths": 8263,
      "##ipping": 8264,
      "Islands": 8265,
      "Emperor": 8266,
      "Bowl": 8267,
      "Bowie": 8268,
      "digital": 8269,
      "##owntown": 8270,
      "Ll": 8271,
      "Obs": 8272,
      "SR": 8273,
      "cool": 8274,
      "ru": 8275,
      "rot": 8276,
      "roof": 8277,
      "##itter": 8278,
      "##amber": 8279,
      "ones": 8280,
      "##osite": 8281,
      "shr": 8282,
      "resident": 8283,
      "decade": 8284,
      "knew": 8285,
      "subs": 8286,
      "supposed": 8287,
      "showing": 8288,
      "1978": 8289,
      "130": 8290,
      "serves": 8291,
      "myth": 8292,
      "genre": 8293,
      "equal": 8294,
      "limit": 8295,
      "People": 8296,
      "Golden": 8297,
      "athletes": 8298,
      "Baseball": 8299,
      "Baby": 8300,
      "Fey": 8301,
      "tied": 8302,
      "##ii": 8303,
      "##load": 8304,
      "##western": 8305,
      "##greg": 8306,
      "reasons": 8307,
      "##istol": 8308,
      "interchange": 8309,
      "accompl": 8310,
      "concer": 8311,
      "Color": 8312,
      "Prof": 8313,
      "Brook": 8314,
      "turns": 8315,
      "repair": 8316,
      "improve": 8317,
      "industrial": 8318,
      "violence": 8319,
      "constitution": 8320,
      "extremely": 8321,
      "bottom": 8322,
      "Dan": 8323,
      "Li": 8324,
      "##sen": 8325,
      "##iminal": 8326,
      "##aga": 8327,
      "##essa": 8328,
      "Intern": 8329,
      "exact": 8330,
      "shif": 8331,
      "##onder": 8332,
      "flank": 8333,
      "defence": 8334,
      "##eget": 8335,
      "transform": 8336,
      "1937": 8337,
      "reality": 8338,
      "typical": 8339,
      "##agonist": 8340,
      "railway": 8341,
      "unsu": 8342,
      "principal": 8343,
      "candidate": 8344,
      "Columbia": 8345,
      "Athlet": 8346,
      "Native": 8347,
      "Nintend": 8348,
      "Rog": 8349,
      "folk": 8350,
      "##reets": 8351,
      "##emies": 8352,
      "##apes": 8353,
      "Station": 8354,
      "agent": 8355,
      "manner": 8356,
      "colle": 8357,
      "musicians": 8358,
      "Mexican": 8359,
      "neck": 8360,
      "##itzer": 8361,
      "railroad": 8362,
      "Malays": 8363,
      "economy": 8364,
      "reaction": 8365,
      "supplies": 8366,
      "astron": 8367,
      "basketball": 8368,
      "Nintendo": 8369,
      "Ast": 8370,
      "Han": 8371,
      "Meg": 8372,
      "library": 8373,
      "rated": 8374,
      "wed": 8375,
      "##itors": 8376,
      "##ulpt": 8377,
      "shel": 8378,
      "soft": 8379,
      "Joe": 8380,
      "lasted": 8381,
      "personnel": 8382,
      "Duke": 8383,
      "strik": 8384,
      "Madonna": 8385,
      "holding": 8386,
      "religion": 8387,
      "applied": 8388,
      "hydro": 8389,
      "58": 8390,
      "87": 8391,
      "Fantasy": 8392,
      "Linc": 8393,
      "Sn": 8394,
      "lung": 8395,
      "##theless": 8396,
      "##bird": 8397,
      "##ador": 8398,
      "##oln": 8399,
      "##olph": 8400,
      "##irman": 8401,
      "##essing": 8402,
      "##opher": 8403,
      "tra": 8404,
      "##angerous": 8405,
      "##aware": 8406,
      "1958": 8407,
      "Recording": 8408,
      "dissip": 8409,
      "distribution": 8410,
      "Television": 8411,
      "split": 8412,
      "battery": 8413,
      "Lincoln": 8414,
      "Hor": 8415,
      "##onica": 8416,
      "##agues": 8417,
      "##cton": 8418,
      "##iege": 8419,
      "Alkan": 8420,
      "flights": 8421,
      "Marine": 8422,
      "17th": 8423,
      "Prime": 8424,
      "Gram": 8425,
      "courts": 8426,
      "Moh": 8427,
      "renamed": 8428,
      "painting": 8429,
      "arranged": 8430,
      "scientific": 8431,
      "63": 8432,
      "74": 8433,
      "Fire": 8434,
      "Greg": 8435,
      "NH": 8436,
      "Rod": 8437,
      "Walk": 8438,
      "fit": 8439,
      "sort": 8440,
      "##water": 8441,
      "##born": 8442,
      "##orters": 8443,
      "franch": 8444,
      "shared": 8445,
      "composition": 8446,
      "##oys": 8447,
      "##atty": 8448,
      "flow": 8449,
      "decades": 8450,
      "##inking": 8451,
      "possibility": 8452,
      "demol": 8453,
      "Moncton": 8454,
      "squad": 8455,
      "crossing": 8456,
      "Anton": 8457,
      "nomination": 8458,
      "Kennedy": 8459,
      "Sudirman": 8460,
      "Premier": 8461,
      "Elizabeth": 8462,
      "88": 8463,
      "Bat": 8464,
      "Mort": 8465,
      "ll": 8466,
      "lic": 8467,
      "mut": 8468,
      "nick": 8469,
      "##cription": 8470,
      "##BI": 8471,
      "##odon": 8472,
      "##opes": 8473,
      "committed": 8474,
      "remix": 8475,
      "Spe": 8476,
      "Anth": 8477,
      "1983": 8478,
      "1936": 8479,
      "headed": 8480,
      "getting": 8481,
      "Crown": 8482,
      "volunte": 8483,
      "portrayed": 8484,
      "Busch": 8485,
      "unsuccess": 8486,
      "Bir": 8487,
      "Dar": 8488,
      "Low": 8489,
      "##aug": 8490,
      "##know": 8491,
      "##atus": 8492,
      "##ician": 8493,
      "##otic": 8494,
      "atmosp": 8495,
      "##unior": 8496,
      "items": 8497,
      "Thunder": 8498,
      "##ropri": 8499,
      "highlight": 8500,
      "invited": 8501,
      "1955": 8502,
      "storyline": 8503,
      "commanded": 8504,
      "Hamilton": 8505,
      "Office": 8506,
      "Transport": 8507,
      "enjoyed": 8508,
      "Nicole": 8509,
      "philos": 8510,
      "79": 8511,
      "Down": 8512,
      "Wright": 8513,
      "cart": 8514,
      "fung": 8515,
      "od": 8516,
      "##come": 8517,
      "##ading": 8518,
      "##aya": 8519,
      "exchange": 8520,
      "##achus": 8521,
      "synthes": 8522,
      "developing": 8523,
      "moder": 8524,
      "genes": 8525,
      "fields": 8526,
      "Somal": 8527,
      "rules": 8528,
      "derived": 8529,
      "Greeley": 8530,
      "weakened": 8531,
      "Destiny": 8532,
      "##enzodiazepines": 8533,
      "Meyer": 8534,
      "Bang": 8535,
      "Rem": 8536,
      "Your": 8537,
      "eth": 8538,
      "rid": 8539,
      "sections": 8540,
      "vision": 8541,
      "##oir": 8542,
      "##OK": 8543,
      "insc": 8544,
      "stret": 8545,
      "impr": 8546,
      "1930s": 8547,
      "entitled": 8548,
      "experiment": 8549,
      "opposition": 8550,
      "##onnet": 8551,
      "Butler": 8552,
      "Mountain": 8553,
      "remainder": 8554,
      "Mosley": 8555,
      "citizens": 8556,
      "Treat": 8557,
      "Wars": 8558,
      "##elson": 8559,
      "consequ": 8560,
      "##apped": 8561,
      "chance": 8562,
      "##usted": 8563,
      "arc": 8564,
      "sculpt": 8565,
      "sym": 8566,
      "Adam": 8567,
      "winner": 8568,
      "Allied": 8569,
      "speaking": 8570,
      "armor": 8571,
      "Miles": 8572,
      "excav": 8573,
      "begun": 8574,
      "Alexander": 8575,
      "clean": 8576,
      "recommended": 8577,
      "Family": 8578,
      "parallel": 8579,
      "3D": 8580,
      "82": 8581,
      "Nes": 8582,
      "bul": 8583,
      "crop": 8584,
      "##ivals": 8585,
      "##ources": 8586,
      "##rait": 8587,
      "Alan": 8588,
      "##iously": 8589,
      "interested": 8590,
      "Who": 8591,
      "Country": 8592,
      "clubs": 8593,
      "Critical": 8594,
      "absor": 8595,
      "slowly": 8596,
      "Olympics": 8597,
      "narrative": 8598,
      "Norman": 8599,
      "rarely": 8600,
      "89": 8601,
      "92": 8602,
      "Mot": 8603,
      "PC": 8604,
      "Rat": 8605,
      "dream": 8606,
      "ha": 8607,
      "vote": 8608,
      "##aising": 8609,
      "##tty": 8610,
      "##rum": 8611,
      "##illy": 8612,
      "##angers": 8613,
      "remn": 8614,
      "decline": 8615,
      "revolution": 8616,
      "110": 8617,
      "classes": 8618,
      "medieval": 8619,
      "approached": 8620,
      "Georg": 8621,
      "difficulty": 8622,
      "appoint": 8623,
      "habitat": 8624,
      "inhabit": 8625,
      "Weekly": 8626,
      "Age": 8627,
      "CE": 8628,
      "Fame": 8629,
      "Five": 8630,
      "Kir": 8631,
      "gall": 8632,
      "ham": 8633,
      "mo": 8634,
      "nav": 8635,
      "##itage": 8636,
      "##istan": 8637,
      "##iller": 8638,
      "moves": 8639,
      "landfall": 8640,
      "Plot": 8641,
      "Commander": 8642,
      "Within": 8643,
      "needs": 8644,
      "feeling": 8645,
      "Apple": 8646,
      "##iques": 8647,
      "succeeded": 8648,
      "Kapoor": 8649,
      "Labor": 8650,
      "rose": 8651,
      "##gé": 8652,
      "##je": 8653,
      "##alo": 8654,
      "##acent": 8655,
      "##uma": 8656,
      "##rie": 8657,
      "##aka": 8658,
      "spac": 8659,
      "parties": 8660,
      "##ribed": 8661,
      "musc": 8662,
      "emp": 8663,
      "1962": 8664,
      "describing": 8665,
      "1954": 8666,
      "1931": 8667,
      "department": 8668,
      "causes": 8669,
      "Corporation": 8670,
      "massive": 8671,
      "penal": 8672,
      "dollar": 8673,
      "Turk": 8674,
      "southeast": 8675,
      "67": 8676,
      "86": 8677,
      "9th": 8678,
      "Hell": 8679,
      "Kim": 8680,
      "Now": 8681,
      "Sk": 8682,
      "fer": 8683,
      "lov": 8684,
      "##ping": 8685,
      "##aling": 8686,
      "##issance": 8687,
      "disturb": 8688,
      "##aha": 8689,
      "##ructure": 8690,
      "southwest": 8691,
      "strongly": 8692,
      "solid": 8693,
      "missed": 8694,
      "treaty": 8695,
      "assistant": 8696,
      "pipeline": 8697,
      "thousands": 8698,
      "Director": 8699,
      "adapted": 8700,
      "Cop": 8701,
      "Dream": 8702,
      "NBC": 8703,
      "Sel": 8704,
      "Snow": 8705,
      "Well": 8706,
      "catch": 8707,
      "din": 8708,
      "races": 8709,
      "##pole": 8710,
      "##ecraft": 8711,
      "hear": 8712,
      "##riev": 8713,
      "legend": 8714,
      "Channel": 8715,
      "attached": 8716,
      "consult": 8717,
      "someone": 8718,
      "##insula": 8719,
      "USA": 8720,
      "reviewers": 8721,
      "authors": 8722,
      "combination": 8723,
      "certified": 8724,
      "discovery": 8725,
      "alternative": 8726,
      "routes": 8727,
      "68": 8728,
      "Hospital": 8729,
      "IV": 8730,
      "bal": 8731,
      "rum": 8732,
      "voted": 8733,
      "##wa": 8734,
      "##aria": 8735,
      "##ione": 8736,
      "##rets": 8737,
      "beach": 8738,
      "resear": 8739,
      "outbreak": 8740,
      "secure": 8741,
      "actual": 8742,
      "subt": 8743,
      "capable": 8744,
      "objects": 8745,
      "Isa": 8746,
      "skills": 8747,
      "wooden": 8748,
      "cathedral": 8749,
      "Massachus": 8750,
      "condoms": 8751,
      "Modern": 8752,
      "plasma": 8753,
      "García": 8754,
      "Colorado": 8755,
      "Massachusetts": 8756,
      "Ele": 8757,
      "Leno": 8758,
      "Sand": 8759,
      "dens": 8760,
      "ster": 8761,
      "##taining": 8762,
      "##iography": 8763,
      "##err": 8764,
      "##alent": 8765,
      "##alions": 8766,
      "##amin": 8767,
      "##urches": 8768,
      "online": 8769,
      "##othes": 8770,
      "##apo": 8771,
      "neither": 8772,
      "##oba": 8773,
      "Leon": 8774,
      "colour": 8775,
      "Adams": 8776,
      "evening": 8777,
      "replace": 8778,
      "references": 8779,
      "Philipp": 8780,
      "circum": 8781,
      "specifically": 8782,
      "apart": 8783,
      "Howe": 8784,
      "ancest": 8785,
      "proposal": 8786,
      "permanent": 8787,
      "98": 8788,
      "Ball": 8789,
      "Fre": 8790,
      "Gab": 8791,
      "Journal": 8792,
      "eat": 8793,
      "hang": 8794,
      "sell": 8795,
      "tell": 8796,
      "theatre": 8797,
      "##eness": 8798,
      "decor": 8799,
      "Marc": 8800,
      "charges": 8801,
      "acclaim": 8802,
      "assass": 8803,
      "basic": 8804,
      "mathem": 8805,
      "classification": 8806,
      "breaking": 8807,
      "greatly": 8808,
      "Davis": 8809,
      "glass": 8810,
      "regional": 8811,
      "settled": 8812,
      "Queens": 8813,
      "escort": 8814,
      "Maryland": 8815,
      "Norway": 8816,
      "interpret": 8817,
      "Wilhelm": 8818,
      "Cape": 8819,
      "Domin": 8820,
      "Holl": 8821,
      "Kansas": 8822,
      "Lock": 8823,
      "Mu": 8824,
      "Nick": 8825,
      "Nelson": 8826,
      "municip": 8827,
      "##iger": 8828,
      "##agg": 8829,
      "##lders": 8830,
      "##aked": 8831,
      "##sex": 8832,
      "##send": 8833,
      "recalled": 8834,
      "upgr": 8835,
      "wealth": 8836,
      "flu": 8837,
      "Maria": 8838,
      "retained": 8839,
      "accused": 8840,
      "##iversary": 8841,
      "##anca": 8842,
      "studied": 8843,
      "obtained": 8844,
      "1961": 8845,
      "1912": 8846,
      "reviewer": 8847,
      "Mint": 8848,
      "victims": 8849,
      "involving": 8850,
      "entering": 8851,
      "steam": 8852,
      "recognition": 8853,
      "autom": 8854,
      "discussed": 8855,
      "independence": 8856,
      "internal": 8857,
      "concerns": 8858,
      "ratings": 8859,
      "Roy": 8860,
      "bid": 8861,
      "card": 8862,
      "cinem": 8863,
      "lap": 8864,
      "sight": 8865,
      "##vements": 8866,
      "##fare": 8867,
      "##zen": 8868,
      "##entions": 8869,
      "##uting": 8870,
      "stayed": 8871,
      "##akota": 8872,
      "##ensus": 8873,
      "pregn": 8874,
      "gray": 8875,
      "12th": 8876,
      "instruct": 8877,
      "starred": 8878,
      "Abb": 8879,
      "attracted": 8880,
      "thirty": 8881,
      "DC": 8882,
      "MS": 8883,
      "##chen": 8884,
      "##mun": 8885,
      "##hatt": 8886,
      "##kins": 8887,
      "##erted": 8888,
      "inher": 8889,
      "##imore": 8890,
      "Inv": 8891,
      "##illo": 8892,
      "##ocal": 8893,
      "chorus": 8894,
      "##aste": 8895,
      "leadership": 8896,
      "designs": 8897,
      "verse": 8898,
      "believes": 8899,
      "turning": 8900,
      "convin": 8901,
      "##ivalent": 8902,
      "communities": 8903,
      "##iece": 8904,
      "funds": 8905,
      "establishment": 8906,
      "somewhat": 8907,
      "Ca": 8908,
      "cul": 8909,
      "gal": 8910,
      "giant": 8911,
      "taught": 8912,
      "youth": 8913,
      "##fri": 8914,
      "##mium": 8915,
      "##ware": 8916,
      "##ader": 8917,
      "trail": 8918,
      "##ignment": 8919,
      "flat": 8920,
      "##ugby": 8921,
      "##ooking": 8922,
      "acknow": 8923,
      "format": 8924,
      "cargo": 8925,
      "##ertain": 8926,
      "generation": 8927,
      "owner": 8928,
      "depict": 8929,
      "Beach": 8930,
      "approved": 8931,
      "superv": 8932,
      "Indiana": 8933,
      "Prior": 8934,
      "Howard": 8935,
      "challenge": 8936,
      "message": 8937,
      "7th": 8938,
      "Daily": 8939,
      "Ice": 8940,
      "Már": 8941,
      "Op": 8942,
      "liber": 8943,
      "##cement": 8944,
      "##math": 8945,
      "##yles": 8946,
      "##ols": 8947,
      "##abled": 8948,
      "reconst": 8949,
      "impl": 8950,
      "consum": 8951,
      "##ropol": 8952,
      "##othing": 8953,
      "teaching": 8954,
      "Sports": 8955,
      "appearing": 8956,
      "longest": 8957,
      "##inkel": 8958,
      "crash": 8959,
      "250": 8960,
      "separated": 8961,
      "association": 8962,
      "injured": 8963,
      "Bellaire": 8964,
      "##ibbean": 8965,
      "corner": 8966,
      "easily": 8967,
      "Márquez": 8968,
      "Hart": 8969,
      "ISB": 8970,
      "Seas": 8971,
      "Sup": 8972,
      "UTC": 8973,
      "bats": 8974,
      "dub": 8975,
      "##mon": 8976,
      "##eds": 8977,
      "##roit": 8978,
      "trains": 8979,
      "##oked": 8980,
      "##ologists": 8981,
      "Caribbean": 8982,
      "warm": 8983,
      "pointed": 8984,
      "##uese": 8985,
      "heads": 8986,
      "replacement": 8987,
      "Smart": 8988,
      "Portland": 8989,
      "crossed": 8990,
      "coastal": 8991,
      "threatened": 8992,
      "literary": 8993,
      "chapter": 8994,
      "chemical": 8995,
      "hunting": 8996,
      "duties": 8997,
      "graphics": 8998,
      "custom": 8999,
      "ISBN": 9000,
      "Hou": 9001,
      "Nap": 9002,
      "Sher": 9003,
      "pig": 9004,
      "session": 9005,
      "vert": 9006,
      "wins": 9007,
      "##iel": 9008,
      "##rec": 9009,
      "orchest": 9010,
      "enemies": 9011,
      "register": 9012,
      "1949": 9013,
      "Science": 9014,
      "1938": 9015,
      "poems": 9016,
      "statement": 9017,
      "effectively": 9018,
      "suffering": 9019,
      "predec": 9020,
      "brothers": 9021,
      "hoped": 9022,
      "Samuel": 9023,
      "battleship": 9024,
      "distributed": 9025,
      "##rupted": 9026,
      "carrying": 9027,
      "Castle": 9028,
      "Railway": 9029,
      "vessels": 9030,
      "attributed": 9031,
      "Portuguese": 9032,
      "franchise": 9033,
      "77": 9034,
      "DE": 9035,
      "Far": 9036,
      "Jup": 9037,
      "Kev": 9038,
      "MTV": 9039,
      "Pass": 9040,
      "Sem": 9041,
      "hope": 9042,
      "##ooth": 9043,
      "##vard": 9044,
      "##iti": 9045,
      "##ashed": 9046,
      "assemb": 9047,
      "indig": 9048,
      "doct": 9049,
      "strateg": 9050,
      "driver": 9051,
      "Indones": 9052,
      "1935": 9053,
      "Juan": 9054,
      "protest": 9055,
      "debate": 9056,
      "novels": 9057,
      "Death": 9058,
      "grounds": 9059,
      "seeing": 9060,
      "Townsend": 9061,
      "virus": 9062,
      "assistance": 9063,
      "satis": 9064,
      "emerged": 9065,
      "Egyptian": 9066,
      "recovered": 9067,
      "controversy": 9068,
      "behavior": 9069,
      "Winter": 9070,
      "specimens": 9071,
      "##ranean": 9072,
      "Braat": 9073,
      "Baltimore": 9074,
      "Oak": 9075,
      "downtown": 9076,
      "ec": 9077,
      "nob": 9078,
      "##rates": 9079,
      "##ba": 9080,
      "##esc": 9081,
      "songwrit": 9082,
      "10th": 9083,
      "driving": 9084,
      "restored": 9085,
      "Earl": 9086,
      "victories": 9087,
      "Supp": 9088,
      "creator": 9089,
      "merch": 9090,
      "##razy": 9091,
      "purchase": 9092,
      "Illmatic": 9093,
      "legislation": 9094,
      "Gardner": 9095,
      "paintings": 9096,
      "Turkish": 9097,
      "Cru": 9098,
      "RAF": 9099,
      "pow": 9100,
      "##don": 9101,
      "##lan": 9102,
      "##mith": 9103,
      "##orous": 9104,
      "##asions": 9105,
      "##state": 9106,
      "forests": 9107,
      "##ima": 9108,
      "planning": 9109,
      "evolution": 9110,
      "acts": 9111,
      "Carter": 9112,
      "##arsh": 9113,
      "164": 9114,
      "depend": 9115,
      "collect": 9116,
      "criminal": 9117,
      "Media": 9118,
      "Palest": 9119,
      "passengers": 9120,
      "Sunday": 9121,
      "camera": 9122,
      "RA": 9123,
      "Sora": 9124,
      "rural": 9125,
      "##wich": 9126,
      "##ato": 9127,
      "##pping": 9128,
      "truth": 9129,
      "ago": 9130,
      "grav": 9131,
      "meets": 9132,
      "Shiva": 9133,
      "opposite": 9134,
      "motor": 9135,
      "considerable": 9136,
      "Construction": 9137,
      "watching": 9138,
      "picked": 9139,
      "Temple": 9140,
      "isolated": 9141,
      "Phoenix": 9142,
      "spacecraft": 9143,
      "Eagle": 9144,
      "Mah": 9145,
      "Pers": 9146,
      "Sa": 9147,
      "tick": 9148,
      "##esp": 9149,
      "##oting": 9150,
      "##char": 9151,
      "##ewhere": 9152,
      "schem": 9153,
      "Alab": 9154,
      "interior": 9155,
      "accounts": 9156,
      "surg": 9157,
      "colony": 9158,
      "passage": 9159,
      "Track": 9160,
      "1910": 9161,
      "involvement": 9162,
      "1909": 9163,
      "##ommod": 9164,
      "hosted": 9165,
      "reduce": 9166,
      "questions": 9167,
      "traveled": 9168,
      "Building": 9169,
      "bringing": 9170,
      "dominated": 9171,
      "micro": 9172,
      "romantic": 9173,
      "Rolling": 9174,
      "resistance": 9175,
      "Kevin": 9176,
      "Jr": 9177,
      "Tessa": 9178,
      "rich": 9179,
      "sed": 9180,
      "sam": 9181,
      "##rant": 9182,
      "##rating": 9183,
      "##ée": 9184,
      "##ér": 9185,
      "Staff": 9186,
      "Arthur": 9187,
      "##athus": 9188,
      "accur": 9189,
      "foundation": 9190,
      "16th": 9191,
      "characteristics": 9192,
      "operating": 9193,
      "legs": 9194,
      "##aurus": 9195,
      "equipped": 9196,
      "Poland": 9197,
      "holds": 9198,
      "presidential": 9199,
      "Player": 9200,
      "methods": 9201,
      "dollars": 9202,
      "academic": 9203,
      "penalty": 9204,
      "Bul": 9205,
      "Sox": 9206,
      "Type": 9207,
      "raise": 9208,
      "vide": 9209,
      "xenon": 9210,
      "##after": 9211,
      "##rich": 9212,
      "##rence": 9213,
      "##bitt": 9214,
      "##rees": 9215,
      "##entures": 9216,
      "streets": 9217,
      "sud": 9218,
      "otherwise": 9219,
      "underground": 9220,
      "whereas": 9221,
      "emperor": 9222,
      "##axy": 9223,
      "completion": 9224,
      "detail": 9225,
      "Hergé": 9226,
      "surviving": 9227,
      "sequel": 9228,
      "Santa": 9229,
      "ninth": 9230,
      "Detroit": 9231,
      "preferred": 9232,
      "Matthews": 9233,
      "unusual": 9234,
      "Alabama": 9235,
      "Bond": 9236,
      "Disc": 9237,
      "Finkel": 9238,
      "Jersey": 9239,
      "Si": 9240,
      "cry": 9241,
      "sale": 9242,
      "zone": 9243,
      "##ses": 9244,
      "##har": 9245,
      "##inating": 9246,
      "inner": 9247,
      "##isp": 9248,
      "toll": 9249,
      "##ela": 9250,
      "##using": 9251,
      "##unch": 9252,
      "sees": 9253,
      "spoke": 9254,
      "##ogether": 9255,
      "climb": 9256,
      "desire": 9257,
      "Unlike": 9258,
      "Freder": 9259,
      "coord": 9260,
      "15th": 9261,
      "returns": 9262,
      "download": 9263,
      "classical": 9264,
      "organizations": 9265,
      "sounds": 9266,
      "techniques": 9267,
      "Simon": 9268,
      "rebels": 9269,
      "Singles": 9270,
      "properties": 9271,
      "##beer": 9272,
      "cruiser": 9273,
      "surrounded": 9274,
      "Jupiter": 9275,
      "Finkelstein": 9276,
      "Bru": 9277,
      "Bird": 9278,
      "Gun": 9279,
      "Yue": 9280,
      "bat": 9281,
      "die": 9282,
      "gard": 9283,
      "pure": 9284,
      "ride": 9285,
      "sons": 9286,
      "table": 9287,
      "##orious": 9288,
      "##acon": 9289,
      "##esses": 9290,
      "##akapo": 9291,
      "orbit": 9292,
      "Along": 9293,
      "##ulture": 9294,
      "flo": 9295,
      "noise": 9296,
      "1920": 9297,
      "stands": 9298,
      "animated": 9299,
      "Mississ": 9300,
      "cycle": 9301,
      "Morr": 9302,
      "##going": 9303,
      "##riptions": 9304,
      "hotel": 9305,
      "neighbor": 9306,
      "wearing": 9307,
      "sleep": 9308,
      "segment": 9309,
      "8th": 9310,
      "Around": 9311,
      "Eich": 9312,
      "Hop": 9313,
      "Lyn": 9314,
      "Mog": 9315,
      "sailed": 9316,
      "veget": 9317,
      "##bound": 9318,
      "##MA": 9319,
      "##owa": 9320,
      "##utt": 9321,
      "stream": 9322,
      "Int": 9323,
      "existed": 9324,
      "Stadium": 9325,
      "spin": 9326,
      "recip": 9327,
      "reserv": 9328,
      "relative": 9329,
      "scrap": 9330,
      "agree": 9331,
      "##inals": 9332,
      "##ennis": 9333,
      "poly": 9334,
      "concrete": 9335,
      "1934": 9336,
      "1913": 9337,
      "freed": 9338,
      "technique": 9339,
      "inspiration": 9340,
      "kingdom": 9341,
      "funding": 9342,
      "##glades": 9343,
      "Walpole": 9344,
      "Croatian": 9345,
      "colonial": 9346,
      "Doctor": 9347,
      "Rosebery": 9348,
      "Area": 9349,
      "Dark": 9350,
      "Ep": 9351,
      "Jess": 9352,
      "Midd": 9353,
      "Watch": 9354,
      "gross": 9355,
      "typhoon": 9356,
      "##dale": 9357,
      "##ersed": 9358,
      "Chronic": 9359,
      "adults": 9360,
      "Thus": 9361,
      "##arked": 9362,
      "grant": 9363,
      "metab": 9364,
      "brain": 9365,
      "redsh": 9366,
      "coins": 9367,
      "concerned": 9368,
      "emerg": 9369,
      "prosper": 9370,
      "wickets": 9371,
      "Jesus": 9372,
      "Meyerbeer": 9373,
      "Nesbitt": 9374,
      "84": 9375,
      "Cre": 9376,
      "Iron": 9377,
      "Nether": 9378,
      "Power": 9379,
      "Room": 9380,
      "et": 9381,
      "page": 9382,
      "##sewhere": 9383,
      "##iac": 9384,
      "##body": 9385,
      "##hu": 9386,
      "##ES": 9387,
      "##PA": 9388,
      "aboard": 9389,
      "Alb": 9390,
      "publisher": 9391,
      "offices": 9392,
      "1933": 9393,
      "detailed": 9394,
      "magic": 9395,
      "superior": 9396,
      "Swiss": 9397,
      "Switzer": 9398,
      "valley": 9399,
      "settlers": 9400,
      "Research": 9401,
      "responsibility": 9402,
      "##borough": 9403,
      "spiritual": 9404,
      "Kentucky": 9405,
      "Silver": 9406,
      "category": 9407,
      "Confeder": 9408,
      "emotional": 9409,
      "Supreme": 9410,
      "Houston": 9411,
      "Eichmann": 9412,
      "Bos": 9413,
      "Fore": 9414,
      "Germ": 9415,
      "Jay": 9416,
      "ML": 9417,
      "Naval": 9418,
      "Sav": 9419,
      "pound": 9420,
      "vic": 9421,
      "##ji": 9422,
      "##oned": 9423,
      "##edar": 9424,
      "##anium": 9425,
      "##ilation": 9426,
      "##owing": 9427,
      "##ching": 9428,
      "chain": 9429,
      "churches": 9430,
      "##pres": 9431,
      "##obe": 9432,
      "assumed": 9433,
      "leads": 9434,
      "classic": 9435,
      "##arring": 9436,
      "1921": 9437,
      "destruction": 9438,
      "settle": 9439,
      "injuries": 9440,
      "Everglades": 9441,
      "Lawrence": 9442,
      "experiences": 9443,
      "seemed": 9444,
      "behavi": 9445,
      "duty": 9446,
      "adjacent": 9447,
      "wrong": 9448,
      "Buddh": 9449,
      "Malaysia": 9450,
      "sudden": 9451,
      "Switzerland": 9452,
      "Az": 9453,
      "Bed": 9454,
      "Ban": 9455,
      "Cas": 9456,
      "Fif": 9457,
      "Jur": 9458,
      "Lab": 9459,
      "dating": 9460,
      "vary": 9461,
      "##mouth": 9462,
      "##icate": 9463,
      "##sta": 9464,
      "Init": 9465,
      "##ifer": 9466,
      "deem": 9467,
      "formally": 9468,
      "1951": 9469,
      "##ossible": 9470,
      "##ception": 9471,
      "1932": 9472,
      "depicted": 9473,
      "##scape": 9474,
      "successor": 9475,
      "anniversary": 9476,
      "possession": 9477,
      "Organ": 9478,
      "politics": 9479,
      "surviv": 9480,
      "administr": 9481,
      "premiered": 9482,
      "intelligence": 9483,
      "diameter": 9484,
      "Isaac": 9485,
      "Memorial": 9486,
      "Tun": 9487,
      "ble": 9488,
      "foss": 9489,
      "none": 9490,
      "siege": 9491,
      "tie": 9492,
      "veter": 9493,
      "##time": 9494,
      "##dney": 9495,
      "##po": 9496,
      "##mes": 9497,
      "##isis": 9498,
      "##aments": 9499,
      "##thm": 9500,
      "##iform": 9501,
      "##aku": 9502,
      "##abil": 9503,
      "recre": 9504,
      "outl": 9505,
      "teen": 9506,
      "Anc": 9507,
      "installed": 9508,
      "province": 9509,
      "finishing": 9510,
      "arrested": 9511,
      "promote": 9512,
      "##encies": 9513,
      "Manhatt": 9514,
      "electron": 9515,
      "ready": 9516,
      "looked": 9517,
      "regularly": 9518,
      "engineer": 9519,
      "dispute": 9520,
      "immediate": 9521,
      "Veronica": 9522,
      "Humber": 9523,
      "memory": 9524,
      "eggs": 9525,
      "Mohave": 9526,
      "Treaty": 9527,
      "Braathens": 9528,
      "83": 9529,
      "Kat": 9530,
      "Salv": 9531,
      "jazz": 9532,
      "pup": 9533,
      "sover": 9534,
      "salv": 9535,
      "tone": 9536,
      "votes": 9537,
      "##eper": 9538,
      "##arant": 9539,
      "##osure": 9540,
      "##riors": 9541,
      "##ears": 9542,
      "##uda": 9543,
      "##udes": 9544,
      "##ogy": 9545,
      "quant": 9546,
      "else": 9547,
      "extension": 9548,
      "140": 9549,
      "##ometric": 9550,
      "trials": 9551,
      "Record": 9552,
      "##apping": 9553,
      "functions": 9554,
      "historians": 9555,
      "doesn": 9556,
      "Sym": 9557,
      "treated": 9558,
      "Mrs": 9559,
      "encouraged": 9560,
      "incorporated": 9561,
      "tunnel": 9562,
      "picture": 9563,
      "worst": 9564,
      "Manhattan": 9565,
      "78": 9566,
      "Eug": 9567,
      "Hun": 9568,
      "Tales": 9569,
      "bull": 9570,
      "fal": 9571,
      "##hr": 9572,
      "##urd": 9573,
      "stem": 9574,
      "proport": 9575,
      "shots": 9576,
      "Stro": 9577,
      "intense": 9578,
      "charter": 9579,
      "bright": 9580,
      "demand": 9581,
      "joint": 9582,
      "##yram": 9583,
      "ensure": 9584,
      "Torres": 9585,
      "purposes": 9586,
      "Clem": 9587,
      "Special": 9588,
      "retirement": 9589,
      "Aud": 9590,
      "Free": 9591,
      "Hugh": 9592,
      "Nob": 9593,
      "Real": 9594,
      "cod": 9595,
      "hal": 9596,
      "pull": 9597,
      "snow": 9598,
      "##bours": 9599,
      "##aser": 9600,
      "##uli": 9601,
      "##ripts": 9602,
      "income": 9603,
      "intr": 9604,
      "##ureau": 9605,
      "##ublin": 9606,
      "##rophy": 9607,
      "formal": 9608,
      "interests": 9609,
      "defended": 9610,
      "minister": 9611,
      "1959": 9612,
      "crosses": 9613,
      "renew": 9614,
      "feelings": 9615,
      "Hotel": 9616,
      "understand": 9617,
      "hundreds": 9618,
      "normally": 9619,
      "dismissed": 9620,
      "Internet": 9621,
      "Dog": 9622,
      "Gal": 9623,
      "Main": 9624,
      "Zhou": 9625,
      "fantasy": 9626,
      "pool": 9627,
      "turb": 9628,
      "##tz": 9629,
      "##OC": 9630,
      "##ja": 9631,
      "##idges": 9632,
      "##ophy": 9633,
      "##abb": 9634,
      "shore": 9635,
      "reserve": 9636,
      "##othy": 9637,
      "canc": 9638,
      "supporters": 9639,
      "carri": 9640,
      "opera": 9641,
      "protagonist": 9642,
      "eleven": 9643,
      "refers": 9644,
      "changing": 9645,
      "Sydney": 9646,
      "Wilson": 9647,
      "linked": 9648,
      "spirit": 9649,
      "departure": 9650,
      "tornado": 9651,
      "06": 9652,
      "900": 9653,
      "Bald": 9654,
      "Dublin": 9655,
      "Lü": 9656,
      "Master": 9657,
      "Non": 9658,
      "Tit": 9659,
      "Techn": 9660,
      "ban": 9661,
      "baby": 9662,
      "chest": 9663,
      "dock": 9664,
      "gene": 9665,
      "##ingham": 9666,
      "plane": 9667,
      "##pty": 9668,
      "compounds": 9669,
      "preserved": 9670,
      "meters": 9671,
      "install": 9672,
      "attacking": 9673,
      "restrict": 9674,
[...]
